<unk>	0
<s>	0
</s>	0
▁ca	-3.77469
m	-3.80616
a	-3.95039
H	-3.95896
M	-4.02045
▁	-4.07741
aH	-4.20401
e	-4.25914
am	-4.34213
aM	-4.56549
o	-4.63716
▁na	-4.66327
A	-4.69267
i	-4.80026
AH	-4.96103
▁uvAca	-5.19088
▁tu	-5.23176
▁eva	-5.24872
r	-5.25204
ena	-5.30789
▁sa	-5.37171
sya	-5.38514
EH	-5.39861
An	-5.4268
▁iti	-5.4403
▁a	-5.45794
▁taTA	-5.5165
▁tat	-5.60127
I	-5.61685
At	-5.61861
▁vA	-5.70953
▁hi	-5.72905
O	-5.73554
asya	-5.73621
▁api	-5.74918
▁te	-5.77999
▁'	-5.81291
ya	-5.87129
▁sarva	-5.90842
n	-5.93073
Ani	-5.94837
ezu	-5.97961
t	-6.03838
Aya	-6.09466
▁yaTA	-6.10419
s	-6.13212
▁tatra	-6.17302
▁vi	-6.18493
S	-6.23252
yA	-6.26537
d	-6.30857
▁tasya	-6.31125
▁me	-6.32323
u	-6.32771
▁vE	-6.34877
▁pra	-6.35312
ti	-6.39765
▁yat	-6.41417
ta	-6.44847
Er	-6.45744
Am	-6.46346
eRa	-6.49123
▁iva	-6.50638
Ad	-6.55668
nA	-6.57234
▁tadA	-6.57473
k	-6.62614
▁Darma	-6.62615
▁yaH	-6.6422
AnAm	-6.64355
▁punaH	-6.64451
▁aTa	-6.66067
▁evam	-6.68536
va	-6.72562
▁sA	-6.72914
yam	-6.74767
na	-6.75013
▁tam	-6.75825
▁tad	-6.76695
▁Bavet	-6.77676
pi	-6.78566
▁sva	-6.78582
▁sarve	-6.80249
vA	-6.80582
AnAM	-6.80809
Sca	-6.84295
yaM	-6.84716
▁saha	-6.84817
▁deva	-6.8771
▁mama	-6.89976
te	-6.90862
▁aham	-6.91099
▁etat	-6.91837
▁ye	-6.92915
ra	-6.9396
p	-6.97999
▁dfzwvA	-6.98871
l	-7.00838
BiH	-7.02949
▁ta	-7.03273
▁tvam	-7.03522
▁rAjA	-7.07065
▁tava	-7.0722
as	-7.0745
▁brahma	-7.08566
▁kim	-7.08717
▁namaH	-7.09292
▁upa	-7.09344
▁yadi	-7.09755
g	-7.09824
ni	-7.10235
▁mayA	-7.10373
AM	-7.10478
j	-7.11746
ka	-7.12218
z	-7.12351
▁putra	-7.12466
▁param	-7.12786
▁cA	-7.13988
▁prati	-7.13988
an	-7.14132
▁tena	-7.15786
▁karma	-7.17103
▁atra	-7.18464
▁idam	-7.18677
▁anu	-7.19437
▁A	-7.20607
▁ha	-7.21758
▁ni	-7.22361
vi	-7.22631
B	-7.23499
▁syAt	-7.23635
▁Bavati	-7.26284
la	-7.26537
▁yatra	-7.26692
▁SrI	-7.26722
▁cEva	-7.26943
y	-7.28109
▁sam	-7.28209
▁kftvA	-7.28723
▁rAjan	-7.30518
▁dev	-7.30631
h	-7.30919
yo	-7.31303
ARi	-7.32889
▁s	-7.33011
re	-7.33361
▁iha	-7.34063
▁pari	-7.34395
U	-7.34497
ye	-7.35517
Ta	-7.35613
rA	-7.36112
yaH	-7.36449
'	-7.36458
▁rAja	-7.3796
c	-7.3827
D	-7.39258
▁ucyate	-7.39758
ARAm	-7.40518
▁sadA	-7.42303
▁BArata	-7.44068
▁eza	-7.45611
da	-7.45702
▁sarvam	-7.46228
kft	-7.46894
▁tva	-7.47057
pa	-7.47133
▁ayam	-7.47725
w	-7.47806
zu	-7.49952
▁purA	-7.5002
▁rAma	-7.50202
yate	-7.50326
v	-7.50647
▁eka	-7.51269
▁kaTam	-7.51962
▁bahu	-7.52146
▁saH	-7.5247
tA	-7.52946
▁saMSayaH	-7.52983
ja	-7.53851
▁yA	-7.53966
cC	-7.55053
Bi	-7.55208
▁SrutvA	-7.55755
ro	-7.5693
aSca	-7.5722
▁aBi	-7.58459
▁abravIt	-7.58465
▁sUta	-7.59428
to	-7.59791
▁tvayA	-7.60177
▁nA	-7.60491
▁yo	-7.60763
var	-7.60892
▁tri	-7.60906
aS	-7.61182
kz	-7.61215
ayA	-7.61393
▁sama	-7.614
▁S	-7.61843
▁sarv	-7.62067
▁mA	-7.62155
▁asya	-7.62158
si	-7.62209
ca	-7.62224
yAt	-7.62652
▁yasya	-7.62862
▁pUrva	-7.62885
ram	-7.63322
▁mat	-7.63614
▁yadA	-7.63947
▁ati	-7.64024
kam	-7.64091
tu	-7.64391
▁yad	-7.64557
su	-7.64679
BUt	-7.65258
stu	-7.65413
▁rasa	-7.65819
▁veda	-7.66421
yAm	-7.6645
f	-7.67055
▁jAyate	-7.67344
▁tezAm	-7.68724
▁mahat	-7.69013
pra	-7.69082
▁guru	-7.6909
▁mahA	-7.69135
▁mAm	-7.69238
▁parama	-7.69441
tam	-7.69942
▁kAla	-7.70161
ha	-7.70189
▁loke	-7.70501
▁tasmin	-7.70553
▁arTam	-7.70906
Di	-7.71029
▁kiM	-7.71242
tra	-7.71436
▁kfta	-7.73266
yAH	-7.73548
▁tAn	-7.73719
As	-7.74126
▁Aha	-7.74325
ARAM	-7.74847
taM	-7.75537
▁kft	-7.75669
q	-7.75793
▁loka	-7.75967
▁satya	-7.76228
nu	-7.77468
▁c	-7.77565
anti	-7.77631
▁bala	-7.78646
▁su	-7.78835
AS	-7.78867
kar	-7.79163
▁vESampAyanaH	-7.79292
▁nir	-7.79371
▁para	-7.79547
▁nfpa	-7.79823
taH	-7.80283
ayaH	-7.8045
▁nAma	-7.80504
Ra	-7.81088
et	-7.81799
▁asti	-7.82813
▁ud	-7.82912
uH	-7.83926
RA	-7.84099
▁arTa	-7.84622
▁Bavizyati	-7.84662
▁ka	-7.84747
▁kAma	-7.85086
▁kuru	-7.85292
muK	-7.85659
ur	-7.86523
▁adya	-7.86545
ASca	-7.86775
nam	-7.87407
▁et	-7.88283
▁SfRu	-7.88864
▁pitta	-7.88878
▁AtmA	-7.889
▁n	-7.89176
idaM	-7.89404
▁jagat	-7.89439
▁ava	-7.89938
ras	-7.90698
van	-7.91447
▁kar	-7.91537
▁evaM	-7.91642
▁kuryAt	-7.92118
▁Palam	-7.92411
▁svayam	-7.92727
▁puruza	-7.92772
▁uktam	-7.92793
ati	-7.92985
▁vAta	-7.92995
ate	-7.93196
▁tAm	-7.93255
▁pApa	-7.93731
▁kftam	-7.94269
kaH	-7.94896
▁tapaH	-7.95512
▁nara	-7.95708
▁paYca	-7.95965
at	-7.96428
▁p	-7.97099
▁Atma	-7.97294
▁BUta	-7.97351
Bir	-7.97403
▁indra	-7.97419
E	-7.97579
▁raRe	-7.97989
opa	-7.984
▁uttamam	-7.98582
haM	-7.9868
▁kAle	-7.98869
▁Pala	-7.99039
▁guRa	-7.99126
▁vacaH	-7.99759
▁brahmA	-8.00275
lA	-8.00334
yukt	-8.0038
▁UcuH	-8.00562
▁mahAn	-8.00693
▁BIzma	-8.01187
R	-8.0129
▁k	-8.02247
▁ete	-8.02542
▁Bavanti	-8.02803
▁vAkyam	-8.03093
▁kfzRa	-8.03408
▁tasmAt	-8.03501
▁muni	-8.03692
▁an	-8.03801
naH	-8.03825
▁vESaMpAyana	-8.04027
yu	-8.04074
b	-8.04304
▁vya	-8.04424
▁kArya	-8.04513
eva	-8.0491
▁yena	-8.05232
▁sUtaH	-8.05403
Ami	-8.05643
▁rakta	-8.05752
▁samA	-8.05838
inaH	-8.05922
raR	-8.06121
za	-8.06637
Bav	-8.07043
nI	-8.07161
yoH	-8.08032
ne	-8.08637
eByaH	-8.08783
▁vidyA	-8.09619
ScEva	-8.09733
tAm	-8.09848
anam	-8.09951
▁punar	-8.10053
▁agni	-8.10534
▁kaTaM	-8.10741
par	-8.108
▁pitA	-8.10803
▁Sakra	-8.1118
sa	-8.11301
▁tAta	-8.11386
▁kAm	-8.11446
G	-8.11686
▁smftaH	-8.11872
nti	-8.11946
▁sma	-8.11982
▁vara	-8.12107
ve	-8.12782
▁mahAtmanaH	-8.13039
▁jAt	-8.13181
▁Barata	-8.13305
Ava	-8.14227
vya	-8.14652
▁vidyate	-8.14774
▁asi	-8.15108
ArTa	-8.15289
Eva	-8.15825
syA	-8.16217
tI	-8.16304
▁kA	-8.16489
ayoH	-8.16618
nAm	-8.16879
▁kaPa	-8.16977
▁sv	-8.17048
ke	-8.17206
▁DarmaH	-8.17224
bal	-8.1746
▁vipra	-8.17498
▁hari	-8.17646
▁tezAM	-8.17684
tya	-8.1785
Ng	-8.17954
▁ut	-8.18416
▁brahmaR	-8.1867
▁jYAna	-8.18882
▁Siva	-8.19405
▁putr	-8.19527
▁var	-8.20508
▁ras	-8.20559
▁so	-8.21219
▁kriyA	-8.2152
▁ya	-8.21537
▁rUpa	-8.21546
▁naraH	-8.21589
▁ja	-8.22219
▁pa	-8.22291
pad	-8.22941
Sa	-8.2318
▁tO	-8.23212
ir	-8.23379
▁BU	-8.23849
▁BavAn	-8.23916
pA	-8.2419
▁doza	-8.24229
▁yajYa	-8.24388
sam	-8.248
▁sarvezAm	-8.24841
▁j	-8.24948
▁Bava	-8.25074
▁pitf	-8.25079
▁kAl	-8.25211
▁gataH	-8.2529
nta	-8.25364
gat	-8.25433
▁sarvAn	-8.2563
▁sura	-8.25728
ba	-8.25756
▁uktaH	-8.26167
▁pAp	-8.26428
▁sapta	-8.26443
▁maDye	-8.26628
▁balam	-8.26708
▁yajY	-8.26896
ga	-8.2691
▁yAvat	-8.26926
▁prA	-8.26999
▁yoga	-8.27023
▁hema	-8.27283
▁ataH	-8.27534
▁kAryam	-8.27668
dya	-8.27686
▁AtmanaH	-8.27722
pat	-8.27787
▁prApya	-8.27847
▁pfTak	-8.28063
▁nAnA	-8.28195
▁anyat	-8.2824
kA	-8.2828
▁BIma	-8.28307
ESca	-8.28451
▁strI	-8.28615
▁raTa	-8.28798
▁BAv	-8.2913
▁etad	-8.29266
▁u	-8.29463
jA	-8.29578
▁manaH	-8.29724
kAr	-8.2977
BAv	-8.29919
▁divya	-8.29969
▁ved	-8.29971
▁doz	-8.30189
Dar	-8.30199
▁t	-8.30244
▁mft	-8.30317
kaM	-8.30427
ed	-8.30453
▁tapasA	-8.30505
▁jala	-8.3058
▁deha	-8.30581
▁yukt	-8.3063
yAM	-8.30639
▁vipr	-8.30692
▁pArTa	-8.3108
iz	-8.31087
▁satyam	-8.31089
man	-8.31172
▁apa	-8.31192
▁yog	-8.31431
▁g	-8.31735
▁aBavat	-8.31782
▁parA	-8.31807
▁go	-8.32283
guR	-8.32402
AtmA	-8.32434
▁gatvA	-8.32479
ko	-8.33286
▁mArkaRqeyaH	-8.33318
▁tvAm	-8.33355
yante	-8.33541
▁taTEva	-8.33732
▁soma	-8.34352
▁sarvaM	-8.34439
▁Dan	-8.34505
gam	-8.34513
▁karmaRA	-8.34555
Ram	-8.34629
sO	-8.34636
▁rudra	-8.34732
▁kanyA	-8.34807
▁devAH	-8.34814
▁hya	-8.34973
▁Sata	-8.35034
▁vIra	-8.3518
▁dvi	-8.35569
▁arT	-8.35571
rUp	-8.35855
rI	-8.3599
▁Adi	-8.36061
▁puRya	-8.36275
akaH	-8.36372
▁vizRu	-8.36376
jan	-8.36463
▁candra	-8.36494
kram	-8.36524
▁kva	-8.36813
le	-8.37097
▁vinA	-8.37151
▁kula	-8.37223
▁maDu	-8.37755
▁va	-8.38269
▁lok	-8.3885
naM	-8.38996
uz	-8.39226
▁fzaBa	-8.39402
▁brAhmaRa	-8.39433
▁nAga	-8.3955
▁df	-8.39559
Gn	-8.39853
▁SUr	-8.39896
vit	-8.39949
▁sUrya	-8.4023
dAn	-8.40235
banD	-8.40428
▁uktvA	-8.4043
zw	-8.40529
itA	-8.40667
▁mantra	-8.40767
In	-8.40834
▁paSya	-8.40855
▁aBya	-8.41173
putr	-8.41211
▁kaH	-8.41333
▁manasA	-8.41782
aye	-8.41833
▁sahit	-8.41934
pya	-8.42138
yAni	-8.42168
▁cet	-8.42209
▁prajA	-8.42524
av	-8.42526
▁anena	-8.43022
lam	-8.43069
▁kAraRam	-8.43088
iBiH	-8.43113
▁mantr	-8.4328
yan	-8.43303
▁BIzmaH	-8.43333
▁Sara	-8.43543
cAr	-8.43585
▁priya	-8.4364
Da	-8.43738
itam	-8.43824
▁cApi	-8.43907
patt	-8.44149
▁ganDa	-8.44165
▁anye	-8.44435
Dan	-8.44564
kAm	-8.4466
▁asO	-8.44827
vAd	-8.4501
▁AtmAnam	-8.45146
▁praBuH	-8.4519
▁ko	-8.45212
▁paraM	-8.45251
▁syAd	-8.45258
▁puzpa	-8.45416
AMS	-8.45478
▁ahaM	-8.45513
▁dAn	-8.45906
yog	-8.461
▁tvA	-8.46115
um	-8.46585
DA	-8.46594
vAn	-8.46937
▁vizam	-8.46965
Y	-8.47155
AByAm	-8.47222
ArT	-8.4772
▁padam	-8.47745
▁sADu	-8.48024
▁yuDizWira	-8.48157
▁kawu	-8.4851
sva	-8.48709
sti	-8.48952
▁pARqu	-8.48953
▁B	-8.49037
ste	-8.49103
▁viza	-8.49154
▁suKa	-8.4937
vftt	-8.49427
▁asmi	-8.4944
▁dadyAt	-8.49589
Dy	-8.49766
▁devI	-8.49884
▁dattvA	-8.50203
ved	-8.50319
rUpa	-8.50473
vid	-8.50784
▁BUtvA	-8.50955
▁mAM	-8.51015
▁BUtAnAm	-8.51035
▁tasyA	-8.5112
▁raT	-8.51187
▁rUpam	-8.51202
▁yam	-8.5133
pAl	-8.51446
▁daSa	-8.51644
▁jagAma	-8.51791
▁snAtvA	-8.51834
akam	-8.52026
Nk	-8.52255
▁tAvat	-8.52283
▁rAkzas	-8.52385
▁vajra	-8.52544
tuH	-8.52554
grah	-8.52582
▁kurute	-8.5269
hi	-8.52727
▁budDi	-8.52798
▁tA	-8.52912
yAn	-8.52996
▁nihat	-8.53029
Su	-8.531
▁laGu	-8.53253
▁svarga	-8.53356
▁arhasi	-8.53399
yAd	-8.53613
▁jYAtvA	-8.53624
Bft	-8.53687
dA	-8.53769
dev	-8.53858
▁par	-8.54159
sta	-8.54206
▁sarvaSaH	-8.54363
sA	-8.54363
▁varaH	-8.5437
st	-8.547
▁gacCati	-8.54719
vAs	-8.54772
pAt	-8.54893
▁pArT	-8.55013
eta	-8.55308
sy	-8.55484
▁dfSyate	-8.5551
▁har	-8.55519
tAM	-8.5558
varR	-8.55588
▁BUmi	-8.55729
▁tAM	-8.55735
▁dvija	-8.55755
▁pfTivI	-8.55805
▁Sa	-8.5587
▁sattva	-8.56016
▁prAR	-8.56409
▁baBUva	-8.56422
▁samyak	-8.56437
di	-8.56534
▁rUp	-8.56544
smi	-8.56634
staTA	-8.56635
▁mAnuz	-8.56687
▁SudDa	-8.56713
▁yAti	-8.56802
▁mahAdeva	-8.569
▁AsIt	-8.56937
nya	-8.56971
▁jaya	-8.57005
smE	-8.571
▁suKam	-8.5733
▁kArayet	-8.57394
▁vana	-8.57556
avaH	-8.5759
zwa	-8.57613
▁smftam	-8.57917
▁gatim	-8.58168
▁Satam	-8.58191
sar	-8.58268
▁veg	-8.58635
no	-8.58702
▁catur	-8.58748
▁sidDi	-8.58834
Rq	-8.58889
▁ekam	-8.59024
▁Sveta	-8.59113
▁tan	-8.59372
▁paramam	-8.59447
▁sahasra	-8.59483
fR	-8.59497
raM	-8.5963
▁rAkzasa	-8.5964
▁prARa	-8.59676
▁mokza	-8.60367
▁parvat	-8.60588
▁tIrTa	-8.60591
▁janma	-8.60624
▁arTaH	-8.60716
▁hitam	-8.60792
iti	-8.60943
▁praBo	-8.6102
ScA	-8.61091
So	-8.61099
▁vane	-8.61234
▁tezu	-8.61453
Anu	-8.61458
▁sTit	-8.61585
▁brUhi	-8.61687
▁tAni	-8.61986
▁ISvaraH	-8.62216
jit	-8.62245
▁sattama	-8.62304
TA	-8.62474
▁fzi	-8.62549
▁Satru	-8.6259
▁vAkya	-8.6268
▁kila	-8.62995
▁sidD	-8.63004
AMSca	-8.63027
▁jan	-8.63038
▁nu	-8.63293
▁suK	-8.63416
▁varza	-8.63572
▁manye	-8.63645
▁jarA	-8.63751
▁vaH	-8.63884
▁mUla	-8.63896
▁aNga	-8.64002
▁mfdu	-8.64043
▁manuzy	-8.64044
▁droRa	-8.64116
▁sEny	-8.64139
▁mfga	-8.64198
▁viSva	-8.64221
Ri	-8.64289
dD	-8.64306
▁icCAmi	-8.64376
itaH	-8.6446
▁pAda	-8.64489
▁karoti	-8.64636
kul	-8.64687
▁astu	-8.64817
▁brAhmaR	-8.64884
▁mad	-8.65124
Bya	-8.6513
jaH	-8.65259
▁any	-8.65364
▁puRy	-8.65424
▁ku	-8.65447
▁puruzaH	-8.65481
vI	-8.65713
Al	-8.65824
▁Sakti	-8.6622
laH	-8.6622
Sat	-8.66222
jY	-8.66262
▁sarvA	-8.66328
▁nAg	-8.66338
▁padma	-8.66438
▁devaH	-8.66449
▁samam	-8.66478
▁lakzaRam	-8.66624
▁divy	-8.66686
▁nArAyaRa	-8.66697
▁jYAnam	-8.66873
▁paraH	-8.6688
▁anyaTA	-8.66886
▁bAl	-8.66924
sTa	-8.67196
▁pIta	-8.67227
▁gatiH	-8.67373
▁laBate	-8.67516
▁kuSal	-8.67712
BU	-8.67803
cca	-8.67939
▁Basma	-8.68051
nte	-8.6806
ikA	-8.68231
▁gfh	-8.6847
▁varam	-8.68472
▁vartate	-8.68539
▁Sar	-8.68547
Bavat	-8.68657
kAH	-8.68743
Pal	-8.68878
▁gacCa	-8.68972
Adi	-8.69326
▁kartum	-8.69345
▁vIr	-8.69367
▁sidDa	-8.69425
karma	-8.69458
kza	-8.6957
▁sutaH	-8.69671
yuH	-8.69674
▁mAyA	-8.6982
▁hanti	-8.70108
▁loha	-8.70124
▁asmin	-8.70462
▁ukta	-8.70626
yet	-8.70653
▁ana	-8.70708
▁BUtAni	-8.70716
BAg	-8.70756
▁AhuH	-8.70763
▁pacet	-8.70764
▁avi	-8.70846
rTa	-8.70957
▁Sizy	-8.70986
▁SAstra	-8.7103
▁giri	-8.71032
▁sTitaH	-8.71049
▁b	-8.71165
endr	-8.71166
yati	-8.71203
▁dvij	-8.71203
se	-8.71263
▁ekaH	-8.71289
▁karRa	-8.71369
▁kftA	-8.7137
api	-8.71598
▁rasaH	-8.71654
▁vfdD	-8.717
reRa	-8.71713
▁tejasA	-8.71803
▁vada	-8.71829
Aha	-8.71905
AR	-8.72078
▁alpa	-8.72086
▁SrezWa	-8.72285
▁jYAn	-8.72589
astu	-8.72693
▁pate	-8.72876
▁tIrTe	-8.72901
yE	-8.73009
▁viduH	-8.73021
▁azwa	-8.73068
▁krudD	-8.73186
deva	-8.73298
▁Pal	-8.73303
▁yAn	-8.73303
AByA	-8.7332
▁SuBa	-8.7348
▁vaD	-8.73508
yena	-8.7359
▁citra	-8.73641
▁SarIra	-8.73698
▁duryoDana	-8.73801
rARi	-8.73865
gaR	-8.74211
Darm	-8.74287
K	-8.74507
▁ezA	-8.74746
dam	-8.74776
▁pArTiva	-8.74806
▁Sukra	-8.74829
▁pAd	-8.7487
▁rAvaR	-8.74918
ham	-8.75087
▁rAjya	-8.75151
▁viDi	-8.75234
▁man	-8.75282
▁samprApt	-8.75299
ES	-8.75315
asam	-8.7534
ane	-8.75374
▁mardayet	-8.75558
▁dA	-8.75669
▁varRa	-8.75713
▁mAtA	-8.75745
▁BUyaH	-8.76113
mah	-8.76121
▁mU	-8.76173
▁SIta	-8.76378
aka	-8.76622
▁varR	-8.76874
▁mftyu	-8.77006
▁jAta	-8.77061
▁brAhmaRaH	-8.77109
ByaH	-8.77178
▁aNg	-8.77248
▁antar	-8.77331
▁ganDarva	-8.77392
▁Dana	-8.77476
datt	-8.77508
vE	-8.77567
▁Buvi	-8.77597
okt	-8.77635
▁Baved	-8.7772
▁arjuna	-8.77756
▁Darmam	-8.77765
▁Srut	-8.77921
▁jA	-8.77926
rU	-8.77938
▁daRqa	-8.77999
▁tayoH	-8.7814
▁mAtr	-8.78273
▁Soka	-8.78284
▁Bavat	-8.78339
▁sItA	-8.78541
▁vrat	-8.78673
deS	-8.787
eti	-8.7872
daH	-8.78786
▁vijYey	-8.78812
▁maDyam	-8.78855
▁vayam	-8.78869
▁tEH	-8.78964
smin	-8.79439
budD	-8.79549
▁dur	-8.79576
▁varz	-8.79582
gni	-8.79754
▁jIva	-8.79846
▁sarvatra	-8.79879
▁rAGava	-8.79887
▁fzayaH	-8.79916
statra	-8.79933
▁SuBam	-8.79935
cit	-8.80046
▁BAva	-8.80223
▁tattva	-8.80277
▁nitya	-8.80297
▁aDi	-8.80441
laM	-8.8045
▁Sat	-8.80563
ovAca	-8.80627
▁mAs	-8.80789
▁kaTA	-8.81062
▁nadI	-8.81102
▁sneha	-8.81411
viS	-8.8151
▁Baya	-8.81553
▁pARqava	-8.81554
Bed	-8.81629
Nga	-8.81709
ante	-8.81718
kAra	-8.81753
yata	-8.81878
▁bAhu	-8.82004
▁maDura	-8.82101
▁devA	-8.82115
▁BaktyA	-8.82217
▁devAnAm	-8.82223
pan	-8.82376
▁tAmra	-8.82414
ase	-8.82472
nAt	-8.82489
▁yudDe	-8.82565
▁aSva	-8.8258
▁hast	-8.82644
▁vAnara	-8.82675
▁bal	-8.82726
▁puruz	-8.82959
yas	-8.8296
yEH	-8.82973
▁tvayi	-8.83044
▁pARqavAH	-8.83149
lI	-8.83153
gaman	-8.83169
▁dam	-8.83218
▁kowi	-8.83268
▁arTe	-8.83298
sidD	-8.83305
sU	-8.83326
endra	-8.83401
▁tasyAH	-8.83511
▁mahI	-8.8355
▁yuDizWiraH	-8.83708
▁Kalu	-8.84036
▁rAjyam	-8.84113
asi	-8.84132
nAM	-8.84212
▁ISvara	-8.84247
vyA	-8.84308
▁mahAtmanA	-8.84323
vAsa	-8.84712
▁mahAtmAn	-8.84749
bala	-8.84784
▁vakzyAmi	-8.84927
vah	-8.84929
▁sarvadA	-8.85112
yat	-8.85127
RAm	-8.85186
▁mitra	-8.85288
▁mahatA	-8.85353
▁muKy	-8.85443
▁aTA	-8.85486
▁Srutam	-8.85497
▁kOnteya	-8.85568
▁tuzw	-8.85673
▁kena	-8.85711
▁gat	-8.85728
▁Sastra	-8.85822
▁niyam	-8.85885
▁divyam	-8.85885
▁vidDi	-8.85926
▁patit	-8.85947
▁SIt	-8.85973
▁evA	-8.86024
▁kroDa	-8.86089
▁dAna	-8.86097
darSan	-8.86163
▁ma	-8.86298
ud	-8.86312
▁karR	-8.86354
▁Sak	-8.86512
▁amla	-8.86515
nna	-8.86795
hAr	-8.86865
▁sadfS	-8.86995
ataH	-8.87018
▁viz	-8.87042
▁gadA	-8.8741
pari	-8.87497
▁kAlaH	-8.87561
▁pARqav	-8.87571
▁Darm	-8.87701
▁rAjYaH	-8.87783
▁dadarSa	-8.8782
ci	-8.87844
▁liNga	-8.87864
RaM	-8.87865
▁tulya	-8.87909
kAry	-8.87933
inAm	-8.8794
tum	-8.88067
▁imam	-8.88176
▁jap	-8.88197
▁vAk	-8.88228
▁svarRa	-8.8824
Rqa	-8.88339
▁narADipa	-8.88477
▁saMyog	-8.88499
▁bahUn	-8.88504
▁Ka	-8.88551
▁sahasrARi	-8.88722
▁kalA	-8.8885
▁dIrGa	-8.88852
pI	-8.89025
▁agniH	-8.8911
▁pUjA	-8.89118
▁smftAH	-8.89331
▁aBUt	-8.89394
▁prakfti	-8.89432
hIn	-8.89458
Sc	-8.89458
▁kftaH	-8.89463
▁narmadA	-8.89465
▁BUmO	-8.89479
▁vIrya	-8.89587
AMs	-8.8963
▁sahasr	-8.89685
▁sTAn	-8.89727
mBa	-8.89775
▁Sabd	-8.89849
▁pravakzyAmi	-8.8985
▁kfzR	-8.89883
▁arhati	-8.89954
▁vftt	-8.90291
▁garBa	-8.90307
▁dAnam	-8.90502
▁kartA	-8.90569
▁yuktaH	-8.9072
▁mAMsa	-8.9085
vas	-8.90856
Pala	-8.90975
▁namo	-8.91058
▁matiH	-8.91199
Re	-8.91396
▁jana	-8.9163
▁saMyuge	-8.91814
▁yasmAt	-8.91826
▁nAsti	-8.92294
▁tapas	-8.92377
san	-8.92402
asT	-8.92692
tur	-8.92726
▁gate	-8.9273
▁SAl	-8.92742
▁deh	-8.92813
▁sut	-8.92848
▁sarvAR	-8.92934
▁ek	-8.92975
vrat	-8.93002
▁gaNgA	-8.93018
upa	-8.93084
▁indr	-8.93086
▁tikta	-8.93148
▁BAg	-8.93173
▁mAnas	-8.93224
▁dAnav	-8.93225
yatAm	-8.93324
▁kzIra	-8.93373
SA	-8.9339
▁nArAyaR	-8.93408
▁trayaH	-8.93433
▁Agam	-8.93671
▁iyam	-8.93674
rAj	-8.93765
▁BrAtar	-8.93872
tO	-8.9407
▁rog	-8.94151
vet	-8.94226
karaR	-8.94251
iRaH	-8.94263
▁lokam	-8.94273
▁dfzw	-8.94319
▁viDinA	-8.94556
▁mayi	-8.94676
▁tyaktvA	-8.94696
▁Bakti	-8.94697
▁taT	-8.94727
▁budDiH	-8.94727
▁viviDAn	-8.94731
▁AdAy	-8.94782
▁saBA	-8.94997
▁sev	-8.95061
▁prIti	-8.95086
▁dAha	-8.95294
▁jyezW	-8.9534
▁guruH	-8.95431
loka	-8.95431
▁tAra	-8.9587
▁vyADi	-8.95912
vAr	-8.96113
BAz	-8.9621
▁SudD	-8.96356
▁snigDa	-8.96361
hat	-8.96454
▁SUdr	-8.96479
▁Gora	-8.96535
▁sarvAH	-8.96556
▁DArtarAzwr	-8.96709
▁vit	-8.96795
▁nfp	-8.96807
▁Sez	-8.96845
▁aD	-8.96882
▁nArada	-8.97095
▁SilA	-8.97276
▁om	-8.97349
jAn	-8.97484
▁BIm	-8.97538
▁anna	-8.97583
▁bali	-8.9763
diS	-8.97676
▁SaNKa	-8.97703
▁mArkaRqeya	-8.97761
▁anyaH	-8.97802
ran	-8.98052
▁sahasraSaH	-8.98126
▁sampann	-8.98134
▁mu	-8.98305
Ro	-8.98323
viz	-8.98368
▁deSa	-8.98437
▁sUt	-8.98461
Atma	-8.9847
▁pitAmaha	-8.98619
▁yuga	-8.98706
▁ganD	-8.98766
DAr	-8.98818
▁nIla	-8.98842
▁yuDi	-8.98848
▁gaR	-8.98911
▁gatA	-8.98912
▁cakra	-8.9895
▁vanam	-8.99041
▁ke	-8.99146
▁sarvezA	-8.99229
▁devatA	-8.99279
▁may	-8.99294
▁yaT	-8.99387
gfh	-8.99398
▁gatAH	-8.99471
Un	-8.99499
▁h	-8.9959
▁Bayam	-8.99672
▁prAha	-8.99676
viD	-8.99705
▁Sabda	-8.99728
vo	-8.99749
▁yuktam	-8.99768
▁rAjYA	-8.99895
mAtr	-9.00056
▁tizWati	-9.00107
DAn	-9.00288
▁karmARi	-9.00331
▁muKa	-9.0034
▁vahni	-9.00481
din	-9.0053
▁trizu	-9.00556
▁sTAnam	-9.00566
▁vAsudeva	-9.00609
inA	-9.00611
▁yudDam	-9.00613
▁datta	-9.00671
Asu	-9.00919
ave	-9.01037
▁kazAya	-9.01094
▁hita	-9.01186
jAt	-9.012
▁manda	-9.01301
▁yaj	-9.01374
▁yAnti	-9.01431
ntar	-9.01466
stadA	-9.01671
▁siMha	-9.0169
▁vikAr	-9.01707
ara	-9.01709
asyA	-9.0172
Apah	-9.01742
▁gata	-9.0176
ap	-9.01921
▁brahm	-9.01949
▁iv	-9.02095
yur	-9.02129
izyati	-9.02207
▁deS	-9.02214
▁som	-9.02243
▁kAraR	-9.02266
▁suvarRa	-9.02362
▁gaj	-9.02366
ottama	-9.0237
▁dve	-9.02388
▁devam	-9.02528
avi	-9.02558
BA	-9.02595
Iti	-9.02774
▁vAyu	-9.02793
mArkaRqeya	-9.02803
jIv	-9.0286
▁viviD	-9.02901
▁kfcCr	-9.02904
mukt	-9.02939
▁cakAra	-9.03002
▁roga	-9.03153
▁D	-9.03175
▁kzatra	-9.03328
▁kfte	-9.03372
▁pibet	-9.034
▁kalp	-9.03454
Aste	-9.03507
▁SarEH	-9.03568
▁grah	-9.03627
▁yama	-9.03648
▁SrezWaH	-9.03656
▁fte	-9.0369
▁no	-9.03768
De	-9.03929
tf	-9.03985
▁vyAsa	-9.04104
▁upAy	-9.04115
▁puRyam	-9.04276
nir	-9.04281
▁ante	-9.04316
▁cAtra	-9.04385
▁pakz	-9.04421
▁vaktum	-9.04434
▁dvO	-9.04466
▁yudDa	-9.04476
eSvar	-9.04558
▁BUt	-9.04642
▁DftarAzwra	-9.04646
▁krama	-9.04761
doz	-9.04776
▁kIrti	-9.04869
▁vid	-9.04998
yeta	-9.05052
▁ivA	-9.05058
▁priyam	-9.05105
▁dey	-9.05191
▁sAkzAt	-9.05242
▁BavatA	-9.05246
▁sfzw	-9.05525
ire	-9.05735
▁indriya	-9.05758
▁guRAH	-9.05899
▁pUjayet	-9.0606
▁sanAtanaH	-9.06139
▁dravya	-9.06143
▁vizay	-9.06431
▁rAjy	-9.0645
▁jIvitam	-9.0659
▁vAma	-9.06683
▁hata	-9.06706
▁dakziRA	-9.06735
dana	-9.06767
▁hatvA	-9.06776
▁vizRuH	-9.06817
▁anya	-9.06891
▁rAvaRa	-9.06918
▁vAyuH	-9.06979
jYAt	-9.07013
▁maheSvaraH	-9.07028
patiH	-9.0703
▁AtmanA	-9.07033
▁etAn	-9.07048
InAm	-9.07108
SaNk	-9.07108
▁vartamAn	-9.07207
vAh	-9.07257
▁AyuH	-9.07334
▁ratna	-9.07343
▁mUtra	-9.07359
▁maRi	-9.07478
▁SuBA	-9.07485
rUpiR	-9.07524
varg	-9.07629
▁samudr	-9.0764
rav	-9.0767
lo	-9.07696
▁uttara	-9.07703
Acca	-9.0791
stA	-9.08014
▁SUla	-9.08021
ind	-9.08099
▁itihAsa	-9.08141
jYAn	-9.082
▁uttama	-9.08219
▁rAm	-9.0825
▁nAradaH	-9.08285
▁BaratarzaBa	-9.08398
▁kAlam	-9.08399
▁pravizw	-9.08399
▁anuttamam	-9.08414
▁paSu	-9.08454
sTit	-9.08476
▁bAla	-9.08529
AyuD	-9.08605
▁uzRa	-9.08612
▁dvijAH	-9.08641
▁van	-9.08698
jYA	-9.08803
▁pituH	-9.0881
▁da	-9.08841
kriyA	-9.08856
▁Asan	-9.08866
▁vasu	-9.08905
▁svAdu	-9.08923
▁pApam	-9.09058
▁Sakt	-9.09242
▁dAnava	-9.09274
yut	-9.09339
mAnam	-9.09367
▁sAgar	-9.09392
▁anyatra	-9.09491
▁Siv	-9.0956
tvA	-9.09617
▁arka	-9.09622
pur	-9.09646
▁yasmin	-9.09649
▁kalpa	-9.09655
zaR	-9.09708
▁pitAmahaH	-9.09737
▁hy	-9.09761
mUl	-9.09861
▁gaja	-9.09878
▁dadO	-9.09887
▁tIrT	-9.09934
▁SAnti	-9.09954
▁droR	-9.10161
▁oM	-9.10203
ayo	-9.1035
▁BImasena	-9.10359
▁janAH	-9.10383
▁vfdDi	-9.10425
▁tapo	-9.10428
▁ASu	-9.10592
▁darSanam	-9.10682
▁ev	-9.10703
gra	-9.10704
rAg	-9.10837
deSa	-9.10907
aScA	-9.10931
▁vyA	-9.11034
kzA	-9.11221
▁dravy	-9.11255
▁arjunaH	-9.1131
▁dviguR	-9.11314
kAn	-9.1137
ganD	-9.11406
kara	-9.11413
tara	-9.11425
▁Bavant	-9.11567
▁jit	-9.11628
▁pARi	-9.11715
▁indraH	-9.11733
▁pravartate	-9.11778
▁vApi	-9.11813
▁DAray	-9.11857
▁sparSa	-9.11864
▁sUkzma	-9.11876
▁mucyate	-9.11887
ata	-9.12022
▁brAhmaRAH	-9.1211
▁deveSa	-9.12142
samA	-9.12189
▁sneh	-9.1222
▁itar	-9.1224
▁jIvit	-9.12264
DI	-9.12453
▁drav	-9.12614
▁sAra	-9.12629
▁harza	-9.12654
pe	-9.1267
▁Bed	-9.12707
▁prajAH	-9.12767
▁janArdana	-9.12815
▁zaw	-9.12907
▁dvitIy	-9.12951
▁v	-9.13045
lakz	-9.1311
▁SuciH	-9.1312
▁tIrTam	-9.13137
▁dvijaH	-9.13234
atA	-9.13247
▁guRAn	-9.13268
▁vikram	-9.13284
▁ru	-9.13306
bravIt	-9.13317
▁banDu	-9.13319
▁kzatriy	-9.13355
▁vAnar	-9.13356
▁nAmnA	-9.13373
rat	-9.13375
▁mUl	-9.13425
▁SarIr	-9.1343
▁nEva	-9.13436
▁putrAH	-9.13519
▁Aditya	-9.13575
▁Bojan	-9.1369
atAm	-9.13729
BAva	-9.13788
Bakt	-9.13963
▁vfza	-9.1397
kal	-9.1406
Uz	-9.14074
▁viDiH	-9.1409
▁vAsa	-9.14137
▁kasmAt	-9.14182
▁guREH	-9.14209
▁aMS	-9.1422
▁kartavyam	-9.14271
agrAha	-9.14287
▁aSv	-9.14298
sTAn	-9.14303
▁ap	-9.14374
▁mano	-9.14418
▁viSv	-9.14511
▁dAruR	-9.14609
▁tizWa	-9.14662
▁jita	-9.15076
inI	-9.15076
▁bAR	-9.15088
▁maDya	-9.15127
▁samaH	-9.1514
▁svA	-9.15146
astaTA	-9.15162
viSez	-9.15171
enEva	-9.15198
▁ASram	-9.15222
pUrv	-9.15335
yantr	-9.15458
▁vijay	-9.1547
Ek	-9.15506
stva	-9.15595
cA	-9.15607
▁jIv	-9.15607
▁dEtya	-9.15613
▁tv	-9.1563
▁guR	-9.15684
udit	-9.15718
▁sUry	-9.15869
▁astra	-9.15872
varRa	-9.15983
▁lakzmaRa	-9.16026
▁SivaH	-9.16077
▁Srotum	-9.16145
lpa	-9.16209
ze	-9.16265
▁vimAn	-9.16398
asva	-9.16475
▁vAky	-9.16476
▁yudD	-9.16478
▁adButam	-9.16564
▁muniH	-9.16644
▁ity	-9.16791
sAra	-9.16939
▁as	-9.16946
het	-9.16967
▁vin	-9.16977
▁sTitam	-9.16986
▁prasAd	-9.17087
▁sugrIva	-9.1709
▁daRq	-9.17101
▁vatsa	-9.172
▁tayA	-9.17224
kEH	-9.17278
▁sadyaH	-9.17283
▁hetu	-9.17363
▁kAr	-9.17463
▁prApta	-9.1751
▁jay	-9.17541
▁aDarm	-9.17608
▁antare	-9.17678
▁puzp	-9.1771
▁patiH	-9.17729
rAja	-9.17733
arT	-9.17873
kzi	-9.17995
▁senA	-9.18001
▁nava	-9.18034
▁kAraRa	-9.18126
sarg	-9.18129
▁mahAtmanAm	-9.18135
anta	-9.18183
▁syuH	-9.18184
▁up	-9.18191
▁rakz	-9.18333
▁vyAGra	-9.18338
eByo	-9.18422
▁budDyA	-9.18426
▁praBA	-9.18449
vaD	-9.18485
▁pravftt	-9.18617
hA	-9.18629
▁hIna	-9.1863
kAle	-9.18688
▁nivftt	-9.18748
ava	-9.18765
▁aj	-9.18845
▁svayaM	-9.18874
▁yug	-9.1899
▁gfhItvA	-9.19001
yAs	-9.19029
puruz	-9.1905
meva	-9.19089
mft	-9.19089
▁lavaRa	-9.19091
▁amita	-9.19104
yor	-9.19148
▁AhAra	-9.19161
nena	-9.19197
DAva	-9.19281
▁kapi	-9.193
▁ASrama	-9.19354
▁pAYcAl	-9.194
▁vAs	-9.19464
▁kzamA	-9.19526
ByAm	-9.19545
▁bahavaH	-9.19646
▁priye	-9.19649
▁maRqal	-9.19668
▁jIvati	-9.19688
aScEva	-9.19828
▁prARAn	-9.19853
▁hariH	-9.19903
▁lakzaR	-9.19921
▁lokAn	-9.19933
▁ekA	-9.19934
liNg	-9.19965
▁vfkz	-9.20037
▁dfzwi	-9.20051
Bay	-9.20065
▁kuryAd	-9.20075
▁keSava	-9.20089
sidDi	-9.20194
hast	-9.2024
hAra	-9.20276
▁arDa	-9.2029
yanta	-9.20387
▁sarvaTA	-9.20396
▁cakre	-9.20398
▁tatrA	-9.20419
zi	-9.20447
yajY	-9.20454
▁Gor	-9.20481
▁jIvan	-9.20602
doza	-9.2062
▁Bfgu	-9.20622
▁pannag	-9.20752
▁bIja	-9.2079
▁SUdra	-9.20848
▁dvAr	-9.20854
▁Buj	-9.20858
▁yasyA	-9.20885
RaH	-9.20908
agn	-9.20929
GAt	-9.20966
Anvit	-9.20969
▁jal	-9.21033
SrezW	-9.211
locan	-9.2116
pAk	-9.21188
▁Slezma	-9.21189
▁tIkzR	-9.212
▁miTyA	-9.21206
▁viS	-9.21296
▁tejaH	-9.21368
kAS	-9.21552
AY	-9.21626
InAM	-9.21626
▁uttamA	-9.21671
▁darSan	-9.21687
▁snAt	-9.21716
go	-9.21773
krAnt	-9.21775
▁sarp	-9.21782
▁prayog	-9.21902
dru	-9.21988
▁kAYcanam	-9.22011
▁niyat	-9.22133
▁prajApatiH	-9.22148
▁rAjAnam	-9.22171
▁kAnta	-9.22206
▁Danam	-9.22282
▁rAGavaH	-9.22289
kzu	-9.22399
▁ar	-9.22543
▁Badra	-9.22579
▁mala	-9.22589
▁tAH	-9.22591
▁AgataH	-9.22603
▁purAtana	-9.22617
▁sOmya	-9.22673
▁vftaH	-9.22802
yezu	-9.22835
▁parvata	-9.22961
Darma	-9.22989
tIrT	-9.23036
▁avApnoti	-9.23046
▁mADava	-9.23046
▁dEva	-9.23052
dAr	-9.23058
miti	-9.23065
▁SIla	-9.23129
▁prajYA	-9.23255
▁vAcA	-9.23348
▁kasya	-9.23357
▁annam	-9.23418
▁vESampAyana	-9.23425
▁viSez	-9.23452
▁yakza	-9.23479
▁ambu	-9.23486
Sva	-9.23532
▁trayam	-9.23619
pati	-9.23654
kf	-9.23718
yase	-9.23895
San	-9.23916
▁dad	-9.24038
▁rudr	-9.24106
Atmak	-9.24113
▁vfz	-9.24175
aRam	-9.24251
▁BUzaR	-9.24252
▁kazAy	-9.24263
▁piRqa	-9.24352
▁pAr	-9.24431
cara	-9.24436
▁rAjendra	-9.24448
▁imAm	-9.24453
▁Bav	-9.24474
gA	-9.2449
pAda	-9.24843
kAl	-9.24905
▁mAnavaH	-9.24952
▁DAtu	-9.24973
▁Gfta	-9.25016
▁maNgal	-9.25085
iRAm	-9.25096
▁tasmAd	-9.25169
Yja	-9.25196
▁badDa	-9.25234
yO	-9.2526
▁karizyAmi	-9.25439
▁striyaH	-9.2546
▁antaH	-9.2546
▁liNg	-9.25549
▁asmAkam	-9.25571
stvaM	-9.25599
ntu	-9.25658
▁DarmeRa	-9.25659
▁ezAm	-9.25678
▁SabdaH	-9.25813
▁ced	-9.25821
▁upA	-9.25842
▁praTama	-9.25868
▁jvara	-9.25895
▁yayO	-9.25902
▁proktam	-9.25981
▁mokz	-9.26037
mAnaH	-9.26065
▁sur	-9.26088
▁samBav	-9.26096
laB	-9.26149
Ga	-9.26239
▁mAn	-9.26258
▁putram	-9.26319
▁sTA	-9.26437
cyut	-9.26497
str	-9.26556
▁drazwum	-9.26571
ASv	-9.26692
tAn	-9.26809
stasya	-9.26839
▁dEty	-9.26877
▁vas	-9.26951
▁siMh	-9.2704
mAtra	-9.27079
izu	-9.27098
▁DyAna	-9.27135
▁vyAsaH	-9.2718
fzw	-9.27194
▁purAR	-9.27194
▁samarT	-9.27268
▁lokasya	-9.27306
▁gaRa	-9.27367
praB	-9.27391
muttamam	-9.27406
▁proktA	-9.27412
▁Bog	-9.27435
▁kurvanti	-9.2747
▁Darme	-9.27474
gfhIt	-9.27545
▁jYaH	-9.27642
▁diSaH	-9.27643
▁santi	-9.27675
vfdD	-9.27722
▁parityaj	-9.27753
vft	-9.27758
▁agr	-9.27808
▁Apnoti	-9.27865
rog	-9.27874
AyA	-9.27885
▁DftarAzwraH	-9.27922
Akza	-9.28024
▁gar	-9.28145
SIl	-9.28246
▁BrAtA	-9.28285
tri	-9.28353
▁pUrv	-9.28365
▁yogena	-9.28455
▁mar	-9.28572
yasya	-9.28614
▁parasparam	-9.28625
cint	-9.28667
▁dAr	-9.28688
▁mfd	-9.28701
IrR	-9.28709
ayor	-9.28765
▁tvad	-9.28778
▁snAna	-9.28809
Ev	-9.28876
▁K	-9.28964
▁kule	-9.29003
▁SASvat	-9.29073
kra	-9.29107
▁mAtrA	-9.29159
▁SAnt	-9.29298
▁prApnoti	-9.29334
▁svam	-9.29355
▁aBy	-9.2936
▁pARqavAn	-9.29389
▁kroD	-9.29441
guRa	-9.29577
▁pArTiv	-9.29613
▁uttar	-9.29769
▁BavitA	-9.29789
▁pUt	-9.29793
▁avApnuy	-9.29823
do	-9.29873
▁pitt	-9.29881
▁droRaH	-9.29908
▁yaTAviDi	-9.29933
sahasr	-9.30011
▁ant	-9.30056
▁ASray	-9.30088
raTa	-9.30104
▁uzR	-9.30156
▁atr	-9.30226
▁mada	-9.30239
▁Darmo	-9.3026
hft	-9.3027
▁tIkzRa	-9.30293
▁Sayan	-9.30335
▁SrezW	-9.30399
gar	-9.30413
▁BImasen	-9.30426
▁durlaB	-9.30472
▁hara	-9.30482
▁nABi	-9.30508
ANga	-9.30514
▁karam	-9.30546
pakz	-9.30558
sama	-9.30596
▁suhfd	-9.30636
ScAp	-9.30656
▁narAH	-9.30738
▁dakziRa	-9.30752
dfzw	-9.30771
▁vidvAn	-9.30789
▁vAg	-9.30943
▁gatam	-9.30972
▁rUpeRa	-9.31015
▁Salya	-9.31087
▁vyAD	-9.31092
Ngul	-9.31122
▁yoD	-9.31213
▁kumAr	-9.31307
tAH	-9.31349
▁pAt	-9.31425
▁putro	-9.31437
dy	-9.31437
Ante	-9.31503
parA	-9.31546
▁pati	-9.31659
▁mataH	-9.31662
▁ra	-9.31671
▁sah	-9.31704
▁kavac	-9.31744
Apa	-9.31755
▁Ba	-9.31786
▁uttaram	-9.31814
▁tEla	-9.31831
▁janamejaya	-9.31839
AyAm	-9.31905
▁jag	-9.31907
ayaM	-9.31941
yug	-9.31993
pate	-9.32059
Agni	-9.32092
zwA	-9.32118
▁Druv	-9.32269
▁pavitr	-9.32281
▁vAri	-9.32401
▁citta	-9.32464
tyAg	-9.32535
▁vistar	-9.32654
▁Sok	-9.32656
tre	-9.32665
▁kzaya	-9.32706
▁labDa	-9.3274
▁ravi	-9.32743
▁kanaka	-9.32796
▁rati	-9.32848
rAH	-9.32903
lok	-9.32938
▁japa	-9.32958
▁ganDarvA	-9.3296
▁jvalan	-9.3318
▁kratu	-9.3321
▁rajaH	-9.3331
▁mune	-9.33348
ezva	-9.33366
▁fzaya	-9.33406
AKy	-9.33416
▁viSeza	-9.33488
▁sad	-9.33513
tal	-9.3356
vIr	-9.33594
▁BUtezu	-9.33647
▁hataH	-9.33653
▁yaSaH	-9.33692
▁pARqavaH	-9.33806
▁SIGra	-9.33814
vAp	-9.33823
kO	-9.33875
▁vratam	-9.34056
▁brahmaRA	-9.34099
▁SiraH	-9.34117
OzaD	-9.34173
stava	-9.3418
Ry	-9.34229
▁lavaR	-9.34289
sAm	-9.34325
pAd	-9.34494
▁devadev	-9.34501
▁jale	-9.34516
Srut	-9.34602
priy	-9.34693
▁matsy	-9.34765
▁jaNgam	-9.34855
▁icCasi	-9.34869
tizWa	-9.34874
nil	-9.34884
▁kaP	-9.34908
▁rUkza	-9.34937
▁yoni	-9.35016
▁sat	-9.35084
▁Binna	-9.35087
▁Bave	-9.35134
up	-9.35183
▁yuge	-9.35208
py	-9.35263
dyA	-9.35287
gaH	-9.35302
▁rAGav	-9.3543
▁BartA	-9.35432
▁sattvam	-9.35458
▁manuH	-9.35476
▁dinam	-9.35491
▁caturTa	-9.35518
darS	-9.35536
▁jyoti	-9.35651
▁kurvan	-9.35697
▁muhUrt	-9.35704
▁trElokya	-9.35711
Sabd	-9.35845
▁jAti	-9.35908
▁sarga	-9.35931
▁priyA	-9.35933
bIja	-9.35968
vyakt	-9.36021
tvam	-9.36054
odar	-9.36066
▁dagD	-9.36107
▁karmaRi	-9.36149
jam	-9.36175
grAh	-9.36219
avAn	-9.3623
▁indriy	-9.36231
▁samAhitaH	-9.36246
▁varuR	-9.3625
vara	-9.3627
▁mArut	-9.36305
▁SArdUla	-9.36339
▁vizRoH	-9.36432
▁vihita	-9.36445
▁ime	-9.36482
▁Goram	-9.36513
▁anila	-9.36571
itAH	-9.36906
▁yayAtiH	-9.36966
▁sidDim	-9.37004
raj	-9.37032
▁mahABAga	-9.37062
kalp	-9.37069
fg	-9.37128
▁Sukla	-9.37151
▁gfhasT	-9.37203
▁brahman	-9.37219
▁viSAm	-9.37236
dfSy	-9.37268
▁nidrA	-9.37281
AhAr	-9.37335
▁kaTit	-9.37361
Es	-9.37396
daRq	-9.37424
manas	-9.37446
▁tila	-9.37492
▁SudDi	-9.37509
▁jAyante	-9.37543
▁dIpana	-9.37565
▁krudDaH	-9.37675
▁kara	-9.37681
jja	-9.37715
lamb	-9.37717
▁SAstr	-9.3776
purARe	-9.37909
▁sevit	-9.37965
▁kuntI	-9.38003
▁pratyuvAca	-9.38043
▁dvAdaSa	-9.38058
▁kuRqal	-9.38092
▁drum	-9.38111
tasya	-9.38219
▁uzRam	-9.38246
▁jAtaH	-9.38301
▁SaraRam	-9.38313
▁devo	-9.3839
▁ugra	-9.38412
▁anaGa	-9.38506
trA	-9.38523
▁viDIyate	-9.38577
izyAmi	-9.38603
▁Bavizyanti	-9.38605
▁sTitAH	-9.38614
▁muKam	-9.38718
▁jAn	-9.38776
▁marty	-9.38887
▁vrata	-9.38897
▁gA	-9.39006
▁kaTitam	-9.39029
▁avyayam	-9.39137
odBav	-9.39175
vidyA	-9.39255
eSa	-9.39288
sattam	-9.39297
veg	-9.39327
▁rAkzasAH	-9.39358
mbu	-9.39466
inam	-9.39491
▁anta	-9.39592
darSanam	-9.39616
ADik	-9.3964
loh	-9.39649
▁tumul	-9.39671
▁sAgara	-9.39686
mAnaM	-9.39703
▁kurvIta	-9.39847
▁rakza	-9.39915
▁buD	-9.40009
mArg	-9.40111
▁mukta	-9.4018
▁uktA	-9.40212
▁labDvA	-9.40218
▁bravImi	-9.40222
▁kAryA	-9.40229
▁BrAtfBi	-9.40259
▁SEl	-9.40262
▁akza	-9.40268
▁mal	-9.40348
▁sugrIv	-9.40362
▁dEv	-9.40379
▁vftti	-9.40402
tAra	-9.40479
Eka	-9.40484
▁devadeva	-9.40485
▁BavataH	-9.4049
▁SfNg	-9.40502
dI	-9.40517
▁pramAR	-9.40699
▁dvijasattama	-9.40787
Yjan	-9.40796
jana	-9.40799
▁nity	-9.40811
vaktr	-9.40818
▁moha	-9.40825
▁patnI	-9.40834
▁gir	-9.40835
▁Sva	-9.40922
prA	-9.40941
▁vidyAt	-9.40996
▁Suci	-9.41037
mUla	-9.41093
▁jvar	-9.41146
▁SreyaH	-9.41179
▁dakza	-9.41348
▁samAgam	-9.41381
tena	-9.41394
▁pAn	-9.41395
pal	-9.41407
▁UrDva	-9.41418
▁muhuH	-9.41545
▁kala	-9.41595
▁DAnya	-9.41621
▁svarg	-9.41659
▁haram	-9.4168
▁kzama	-9.41699
▁vidita	-9.41731
▁SrezWam	-9.41733
▁kzIr	-9.41777
▁matsya	-9.41787
puw	-9.41851
Bavan	-9.41932
▁Agatam	-9.41951
▁sanAtanam	-9.41967
▁mUlam	-9.41984
▁SaraRa	-9.42043
▁citr	-9.42062
▁kuzWa	-9.42086
▁gfham	-9.42097
nye	-9.42118
▁devasya	-9.42148
▁Bfty	-9.4219
▁vimukt	-9.4221
▁niScay	-9.42216
bravId	-9.42241
▁vIraH	-9.42282
Sez	-9.42311
naGa	-9.42323
tad	-9.4236
▁jYA	-9.42364
▁aDipa	-9.42376
▁uttamaH	-9.4239
rzaB	-9.42486
▁pizw	-9.42516
▁jagmu	-9.42529
many	-9.42632
▁sahasA	-9.42689
▁paramA	-9.42708
nand	-9.42767
▁izw	-9.42774
▁raRa	-9.42778
▁Sruti	-9.42867
▁anyAn	-9.4289
▁kzetra	-9.42942
▁sTAna	-9.42966
▁prahfzw	-9.4301
▁vadan	-9.43019
Ahur	-9.4302
▁pfTivyA	-9.43035
▁praDAna	-9.43038
vfkz	-9.43047
▁pOr	-9.43068
▁aja	-9.43072
ezAM	-9.43193
▁vadanti	-9.43239
drav	-9.43239
▁duryoDanaH	-9.4324
▁prIt	-9.43253
▁Bakt	-9.43369
zva	-9.43369
▁tattv	-9.4341
▁vaMS	-9.43427
▁guhya	-9.43487
▁devAn	-9.43525
Antar	-9.43536
prati	-9.4356
▁pumAn	-9.43578
Anya	-9.4358
▁deSe	-9.43602
▁Bavizyasi	-9.43605
▁sidDiH	-9.43608
▁sAma	-9.43709
▁dfSyant	-9.4371
RI	-9.43726
▁rAjAnaH	-9.43736
▁sADak	-9.4377
yeva	-9.43824
▁prokta	-9.43964
▁nAtr	-9.44038
▁amftam	-9.4404
tvaM	-9.44108
▁dakziRe	-9.44281
▁anIk	-9.44305
▁mfg	-9.44305
▁SuBe	-9.44308
▁pAna	-9.44433
yU	-9.44459
rO	-9.4446
▁mAtu	-9.44489
▁dIpta	-9.44499
▁duryoDan	-9.44562
▁pare	-9.44685
▁vEzRav	-9.44724
▁zazwi	-9.44724
▁varjayet	-9.44738
▁duzwa	-9.44748
▁puRyA	-9.44774
▁cakr	-9.44812
▁brAhmaRA	-9.44838
▁Barat	-9.44864
kroD	-9.44918
▁nigrah	-9.44947
▁suta	-9.45121
▁munayaH	-9.45202
grahaR	-9.45208
nandana	-9.45294
vartate	-9.45419
▁nandana	-9.45548
tAni	-9.45567
gacCanti	-9.45622
edaM	-9.45712
▁gati	-9.45746
▁meGa	-9.45752
▁BIt	-9.45799
▁cEt	-9.45877
sev	-9.45901
▁maDur	-9.45958
taram	-9.46293
RAM	-9.46427
▁dUt	-9.46469
▁marut	-9.46484
▁yAvad	-9.46594
▁Ahave	-9.46667
▁durbal	-9.46692
▁tuly	-9.46715
▁praty	-9.46717
▁nAS	-9.46722
▁nfpaH	-9.46759
▁sakala	-9.4678
N	-9.46786
yuta	-9.46808
hAs	-9.46845
▁rAjAn	-9.4689
▁antara	-9.4692
▁mAsa	-9.4696
▁prakft	-9.46993
▁BAz	-9.47047
▁prahasan	-9.47056
pramatt	-9.47081
▁duzw	-9.47113
mitr	-9.47194
prad	-9.47202
rad	-9.4722
▁mukti	-9.47227
▁vaMSa	-9.47253
▁balI	-9.4734
▁tfzRA	-9.4734
▁nAd	-9.47592
kur	-9.4761
kIrt	-9.47627
▁triBiH	-9.47636
▁puwa	-9.47647
▁dadAti	-9.47654
▁samud	-9.47659
▁parIkz	-9.47683
▁Siras	-9.47703
▁prAjY	-9.47723
▁snigD	-9.47727
▁pfTivIm	-9.47754
▁mah	-9.47803
▁pUjit	-9.4784
▁hfdaya	-9.47913
▁BAskara	-9.47938
▁vyavasTit	-9.47983
asy	-9.48057
▁kul	-9.48229
▁dadfSu	-9.48243
▁rudDvA	-9.48244
▁brahmacArI	-9.48244
▁cakzuH	-9.48308
▁san	-9.48346
▁mfta	-9.48349
▁viSAM	-9.48387
▁yas	-9.48439
▁arjun	-9.4844
▁sUkzm	-9.48522
de	-9.48553
▁anyonya	-9.48557
▁daH	-9.4858
▁banDa	-9.48656
Iha	-9.48675
▁virAwa	-9.4868
▁brAhm	-9.48739
▁svargam	-9.48741
▁padm	-9.48758
▁ukt	-9.4882
▁gad	-9.48878
▁jagad	-9.48883
▁cintA	-9.48911
▁saty	-9.48932
kAla	-9.49008
ISvar	-9.49066
▁sambanD	-9.49075
▁rataH	-9.49076
ArRav	-9.49206
▁mArga	-9.49226
▁netra	-9.49237
stri	-9.49248
▁sTam	-9.49262
▁hasta	-9.49327
▁sattv	-9.49339
▁dvez	-9.49413
▁ce	-9.49514
▁Sam	-9.49553
▁AcArya	-9.49579
▁apare	-9.49579
▁caret	-9.49609
▁paraspara	-9.4963
sfj	-9.49634
Srama	-9.49654
▁yuktA	-9.49663
▁vaDa	-9.49672
▁Gana	-9.49716
ahar	-9.49764
▁AgatA	-9.49782
▁rakt	-9.49821
▁haMsa	-9.49828
▁tapa	-9.49835
▁rAga	-9.49859
▁matam	-9.49937
▁dina	-9.49971
▁vizaya	-9.49993
cCed	-9.50003
▁rAtrO	-9.5005
▁divi	-9.50066
▁salil	-9.50121
tantr	-9.50139
▁smft	-9.50172
▁uday	-9.50191
AtmAn	-9.50257
▁kalyAR	-9.50291
lak	-9.50378
▁netr	-9.50427
kzara	-9.50458
▁pitar	-9.50467
ottar	-9.50526
rasa	-9.5055
▁lakzaRa	-9.50559
patir	-9.50619
deh	-9.50625
imaM	-9.50632
▁utsfjya	-9.5066
yuz	-9.50662
▁vivyAD	-9.50665
sTA	-9.50674
▁mahad	-9.50676
▁daSaraT	-9.50704
▁rAmeR	-9.5072
▁pItvA	-9.50754
▁yAm	-9.50818
manA	-9.50838
▁mArg	-9.5084
▁SItal	-9.50843
▁sTitA	-9.50853
karmaRi	-9.50926
ByA	-9.5093
▁mUrti	-9.50945
▁pal	-9.50988
gamya	-9.51016
odak	-9.51061
gatA	-9.51062
cc	-9.51074
Binn	-9.51097
▁vft	-9.51189
▁upAs	-9.51189
BAs	-9.51217
▁praBava	-9.51217
lAB	-9.51254
sampann	-9.51288
▁yuvA	-9.51291
▁samyag	-9.51302
▁kzipet	-9.51308
▁mukt	-9.51349
vAt	-9.51376
eSvaraH	-9.51385
cUrR	-9.51448
stv	-9.51456
▁DIr	-9.51458
▁praB	-9.51471
zwam	-9.51492
▁bahuDA	-9.51537
varjit	-9.51581
▁SrutiH	-9.51589
AtmanA	-9.51671
▁Brama	-9.51703
▁DarmAtmA	-9.51739
▁sarvaBUtAnA	-9.5184
▁kAmaH	-9.51846
▁prIta	-9.51905
stam	-9.51929
▁mayam	-9.51934
cetas	-9.51946
lakzaRam	-9.51987
▁priy	-9.52051
▁vitta	-9.52122
▁Ady	-9.52123
▁rasAyanam	-9.52142
▁kzaR	-9.52157
▁prAptaH	-9.52195
▁dfzwa	-9.52247
▁svaBAv	-9.5225
▁sarpa	-9.52397
▁bIjam	-9.52398
▁karaR	-9.52456
yogena	-9.5247
▁dvIp	-9.5248
Byo	-9.52579
rUpA	-9.52621
▁kuryA	-9.52639
pAn	-9.52838
sAr	-9.52854
buD	-9.5288
▁tuByam	-9.52933
▁kzat	-9.52951
nft	-9.52962
▁ganDarv	-9.52972
▁Art	-9.53071
kovid	-9.53102
▁viSizw	-9.5314
▁pravftti	-9.53142
▁manu	-9.53152
▁puraskfty	-9.53234
▁prasann	-9.53257
▁manyate	-9.53263
▁pretya	-9.53294
kand	-9.53305
▁pUjy	-9.53326
nty	-9.53341
▁lokaH	-9.53378
maRqal	-9.53397
▁dozaH	-9.53437
▁viSArad	-9.5344
▁nATa	-9.5345
▁Soc	-9.53458
▁sveda	-9.53481
▁devatAH	-9.5355
▁hfzwa	-9.53555
kzat	-9.53584
sId	-9.53641
▁meru	-9.53643
▁sati	-9.5369
▁maDusUdana	-9.53766
▁kriyate	-9.53766
▁provAca	-9.53766
▁vismaya	-9.53767
▁puw	-9.53771
▁pratijYA	-9.53852
▁kuS	-9.53936
▁dAnt	-9.53942
▁catvAraH	-9.53963
Astra	-9.5399
▁BArgava	-9.54007
▁yezAm	-9.54163
EvA	-9.54175
▁fziH	-9.54235
▁Badre	-9.54255
▁tyAg	-9.54265
▁anvit	-9.54278
▁pramARam	-9.54321
▁vipul	-9.54524
▁dIn	-9.54527
garB	-9.54529
▁dizwyA	-9.54551
vam	-9.54565
▁aneka	-9.54585
▁cira	-9.54607
▁SEla	-9.54634
guru	-9.54663
▁uta	-9.54693
▁rakzaR	-9.54711
▁daD	-9.54778
▁smfti	-9.54783
sah	-9.54799
▁pada	-9.54804
▁manas	-9.54839
rAw	-9.54859
nayan	-9.54887
Anna	-9.54897
▁yukta	-9.54935
▁lokAH	-9.54948
▁hutASan	-9.55036
▁viMSati	-9.55038
▁viKyAta	-9.5504
▁janArdanaH	-9.55058
▁sTa	-9.55189
▁supt	-9.55217
ruvAca	-9.55295
samfdD	-9.5535
SAl	-9.55364
kzam	-9.55364
▁astr	-9.55434
▁bAnDav	-9.55448
▁vidur	-9.55684
lakzaR	-9.55698
▁Sruta	-9.5574
▁puzwi	-9.55746
▁sutam	-9.55791
▁vAt	-9.55906
▁cUrRam	-9.55931
▁tale	-9.5595
maDye	-9.5601
▁dattam	-9.56037
▁puwe	-9.5604
▁kzaRAt	-9.56056
akAH	-9.5606
▁utpann	-9.56063
AB	-9.56083
▁parameSvara	-9.56096
rut	-9.5612
▁devyA	-9.56133
▁yAt	-9.56148
▁Ap	-9.5619
Agat	-9.56213
▁graha	-9.56249
ake	-9.56328
▁manyase	-9.56346
▁ISvar	-9.5635
vistAr	-9.56354
rza	-9.56462
dviz	-9.56466
▁DanuH	-9.56467
▁SiSir	-9.56509
▁AkASa	-9.56535
▁pUrRa	-9.56595
▁bIj	-9.56606
▁prajAyate	-9.56619
je	-9.56653
▁ruci	-9.56657
▁vasizWa	-9.56678
▁vftta	-9.56711
ArTam	-9.56748
dvay	-9.56817
atar	-9.56847
▁Bizak	-9.56971
▁lakzmI	-9.56972
▁tApas	-9.56991
▁BAvaH	-9.56995
▁mAna	-9.57025
pU	-9.5712
▁itya	-9.57197
▁vo	-9.57197
▁kawuka	-9.57286
P	-9.57308
▁grAm	-9.57311
▁Kara	-9.57405
▁SOcam	-9.5746
▁kOravya	-9.5747
▁praSasyate	-9.57625
▁tyajet	-9.57694
▁aSnute	-9.57736
sarp	-9.57747
▁sTaH	-9.5777
▁bARa	-9.57938
yoga	-9.57955
sadfS	-9.57995
▁zoqaSa	-9.58004
▁Sil	-9.58025
▁putrARA	-9.58038
bAhu	-9.58061
▁avyaktam	-9.58084
▁puMs	-9.58116
▁vAji	-9.58169
uzR	-9.58219
▁pad	-9.58238
▁kaTyate	-9.58283
▁smara	-9.58317
▁aBra	-9.58327
▁du	-9.58384
uvAca	-9.58421
▁SriyA	-9.58532
▁kumBa	-9.58643
▁jajYe	-9.58723
▁dfzwA	-9.58736
varz	-9.58782
jin	-9.58813
param	-9.58932
▁piSAc	-9.58945
staTEva	-9.58946
▁praviSya	-9.58946
▁karmaRAm	-9.59016
suK	-9.59105
▁nArad	-9.59112
▁rasam	-9.59128
ABaraR	-9.59202
▁nazwa	-9.5922
▁dfzwam	-9.59232
▁izyate	-9.59258
▁BayAt	-9.5931
▁pfTivyAm	-9.59582
▁mAnavAH	-9.59589
ity	-9.59593
▁ruDira	-9.59613
RAt	-9.59663
▁rasAyane	-9.59711
hita	-9.59717
avyam	-9.59733
▁SrAdDa	-9.59783
▁anva	-9.59783
▁rAkzasaH	-9.59832
pAy	-9.59836
▁surA	-9.59865
▁haya	-9.59865
varcas	-9.59944
▁SaktiH	-9.59995
▁brAhmaRasya	-9.59996
▁rakzasAm	-9.60017
▁saMsAra	-9.60048
dIrG	-9.60099
▁Sivam	-9.60116
▁patra	-9.60129
dAru	-9.60159
prApt	-9.60197
viDi	-9.60251
▁tamaH	-9.60351
▁mAtf	-9.60369
ASray	-9.60403
vIry	-9.60427
▁dvayam	-9.60442
▁gU	-9.60528
▁gam	-9.60592
▁pitaraH	-9.60607
▁prayay	-9.60621
jAH	-9.60625
▁divyA	-9.60649
▁vfkza	-9.60691
▁BArat	-9.60705
Alay	-9.60799
▁jYey	-9.60857
▁samast	-9.6094
▁udyat	-9.60945
▁laNkA	-9.60995
▁hiraRya	-9.61021
▁niSA	-9.61035
▁papAt	-9.61052
raRe	-9.61063
▁Dvaj	-9.61104
▁pakza	-9.61108
▁vyavahAr	-9.6123
▁kaTita	-9.61246
dvi	-9.61288
dant	-9.61306
yoni	-9.6131
▁dIna	-9.61319
ine	-9.6137
hitA	-9.61428
▁mftyuH	-9.61511
▁pfzw	-9.61547
▁Atmakam	-9.61551
▁nagara	-9.61552
▁prAhu	-9.61566
▁SarIram	-9.61571
▁gaRAH	-9.61628
▁hfdy	-9.61641
▁pOtr	-9.61647
▁vijYAya	-9.61658
ratn	-9.61678
rTe	-9.61694
putra	-9.61695
▁yojy	-9.61696
▁sTir	-9.61741
▁sUryaH	-9.61756
karo	-9.61798
▁rudraH	-9.61821
▁vaya	-9.61963
▁dfzwaH	-9.61988
▁pUjay	-9.62027
Agr	-9.62069
▁balena	-9.62158
nAd	-9.62161
▁kali	-9.62204
yanti	-9.62224
▁tapta	-9.6227
arh	-9.62273
Bavad	-9.62291
▁DarmA	-9.62296
▁aS	-9.62363
▁tanu	-9.62383
▁Bojanam	-9.62461
▁jantu	-9.62481
▁pAcan	-9.6262
▁sahitAH	-9.62656
janma	-9.62661
▁sidDam	-9.627
▁asura	-9.62822
▁jalam	-9.62837
▁til	-9.62839
Ast	-9.62882
▁vinAS	-9.62891
▁viSudD	-9.62892
▁samBUt	-9.62903
vAc	-9.62926
▁kAy	-9.62948
▁karRaH	-9.62962
▁jIvita	-9.62969
▁vaktavy	-9.63013
karza	-9.63052
▁lokAnAm	-9.63074
▁karizyati	-9.63104
▁Adity	-9.63174
▁agra	-9.63175
▁pakva	-9.63189
Aj	-9.63195
▁mam	-9.63298
rAn	-9.63299
jo	-9.63317
▁antaram	-9.63363
▁hetuH	-9.63367
▁prAy	-9.63466
▁atIt	-9.63468
▁kaw	-9.63475
▁loBa	-9.63508
▁banDan	-9.63557
▁mitr	-9.63655
▁vfdDa	-9.63701
▁kfp	-9.63755
AMsi	-9.63776
▁hfta	-9.63811
▁mAMs	-9.63826
▁tIvra	-9.6385
▁kfpa	-9.63878
vikram	-9.63886
▁co	-9.63889
▁gfha	-9.63935
▁kzayam	-9.64122
▁kOrav	-9.64134
boD	-9.64212
▁puruzasya	-9.64271
▁hasti	-9.643
▁Kar	-9.64308
▁BAra	-9.64329
▁sahAy	-9.64347
▁pakv	-9.64369
▁sEnDav	-9.64377
▁gupt	-9.64387
▁SiS	-9.64392
rahit	-9.64394
▁kupit	-9.6442
▁svapna	-9.64422
prekzya	-9.64441
▁rat	-9.64447
▁gacCet	-9.64546
▁rase	-9.64603
▁samAna	-9.64694
▁manasaH	-9.64699
▁pakziR	-9.64757
hara	-9.64762
▁BAskar	-9.6477
▁vastra	-9.64958
▁vIryam	-9.64999
gati	-9.65017
▁tAvad	-9.65019
▁vivAh	-9.65036
▁sidDA	-9.65075
▁karaH	-9.65105
▁jayadraT	-9.65112
▁paSUn	-9.6512
▁vAraR	-9.65128
▁mahIpatiH	-9.65138
▁niSAcar	-9.65194
▁yakz	-9.65195
▁jAnI	-9.65199
▁rAvaRaH	-9.65206
▁laBet	-9.65213
▁amAty	-9.65249
rma	-9.65251
Ez	-9.65315
▁KyAta	-9.65401
▁Ananda	-9.6545
darSin	-9.65467
puzpa	-9.65622
▁tattvam	-9.65664
▁yayA	-9.65755
▁amar	-9.65771
▁dadyAd	-9.65798
▁yayAtir	-9.65889
▁nUnam	-9.65925
▁jagataH	-9.6599
izyanti	-9.66009
▁avaDy	-9.66068
ccA	-9.66092
las	-9.66101
▁pitaram	-9.66185
Ira	-9.66267
▁dravyam	-9.66279
▁liNgam	-9.66309
varDa	-9.66331
▁ft	-9.66425
▁vrajet	-9.66559
mantr	-9.66577
▁tvarit	-9.66585
▁haraH	-9.66606
DAraR	-9.66613
kAraR	-9.66623
ino	-9.66662
▁ApnuyAt	-9.66689
▁prakAS	-9.66756
kAnt	-9.66879
▁tal	-9.66904
▁sahadeva	-9.66997
Dara	-9.66998
▁prayat	-9.67023
Do	-9.6703
labD	-9.67054
▁vyaktam	-9.6707
▁kzAra	-9.67077
AyAM	-9.6714
▁darSana	-9.67151
▁aparam	-9.67178
▁mAhAtmyam	-9.67194
▁dattA	-9.672
▁daSA	-9.67226
▁samAgat	-9.67226
saMBav	-9.67232
▁rocate	-9.67268
anu	-9.67301
▁vAsudev	-9.6733
▁mAtara	-9.67351
▁rasendra	-9.67351
▁pIt	-9.67454
▁pratya	-9.67537
eyam	-9.67551
tas	-9.67558
▁deyam	-9.67584
Est	-9.67636
▁havya	-9.67733
kena	-9.67823
▁dozAH	-9.67833
▁cApa	-9.67894
▁prasAda	-9.67935
▁brUte	-9.67979
▁SrUyate	-9.68015
▁dIpt	-9.68027
▁jIvet	-9.68054
▁praBAv	-9.68063
▁parayA	-9.68065
mAnas	-9.68143
▁varDan	-9.68266
▁hatA	-9.68318
▁tEl	-9.68372
▁Atman	-9.6839
▁aKil	-9.68402
▁apar	-9.68414
▁durlaBam	-9.68422
daM	-9.68561
▁BUtAnA	-9.68592
▁jYeyam	-9.68618
▁praBfti	-9.68671
SAK	-9.68687
▁dAtavy	-9.68712
▁suvrata	-9.68749
▁druta	-9.68753
▁tanay	-9.68766
▁Beda	-9.68801
▁japet	-9.68832
▁ISa	-9.68884
▁suKI	-9.68906
▁kftavAn	-9.68925
▁vaSa	-9.68934
▁rajas	-9.68997
▁cAr	-9.69146
KaRq	-9.69219
▁muKe	-9.69225
vad	-9.69231
▁karmasu	-9.6924
eSvara	-9.6926
▁purARa	-9.69287
▁SoRita	-9.69297
vartata	-9.69304
▁ityukt	-9.69336
▁rUkz	-9.69341
trayam	-9.69345
▁saMskAra	-9.69386
▁BIzm	-9.69389
aDIyata	-9.69453
arTa	-9.69463
▁SanEH	-9.69508
▁hany	-9.69521
▁Arya	-9.69567
niB	-9.69667
▁vAsudevaH	-9.69715
KyA	-9.69722
▁dehi	-9.69747
▁dvijottama	-9.6975
rAma	-9.69754
▁ih	-9.69763
▁mahAtma	-9.69776
pUj	-9.69891
▁yamaH	-9.70029
padyate	-9.70042
▁sTira	-9.70074
▁balAt	-9.70082
▁daRqaH	-9.70091
▁niboDa	-9.70097
▁sparS	-9.70112
jvar	-9.70119
ucyate	-9.70132
▁samAH	-9.70154
▁PalAni	-9.70155
uzka	-9.70174
sattama	-9.70184
▁kuYjar	-9.70187
▁samutpann	-9.70206
▁hInA	-9.70269
▁divyAni	-9.70288
stad	-9.70314
uktaM	-9.70334
▁ato	-9.70342
▁patay	-9.70377
▁atIva	-9.7038
▁kAmAn	-9.70381
Antara	-9.70392
▁Gft	-9.7042
▁amft	-9.7046
▁tamas	-9.70537
AtmanaH	-9.70554
▁nASa	-9.70574
▁mAnav	-9.70578
▁prApte	-9.7058
SudD	-9.70616
▁dakziR	-9.70617
netr	-9.70692
▁vAcy	-9.70711
Atmaj	-9.70735
Buj	-9.70775
SAstr	-9.70795
Astu	-9.70796
▁prasAdAt	-9.70815
▁janamejayaH	-9.70826
▁bindu	-9.70857
▁jah	-9.70873
lipt	-9.70935
▁muktA	-9.70996
paSya	-9.71063
▁vAhan	-9.71095
▁SoBan	-9.71164
tapt	-9.71187
roD	-9.7121
▁jAtA	-9.71214
▁pradAn	-9.71216
yEr	-9.71229
boDa	-9.71239
▁kfzRaH	-9.71262
▁surAH	-9.71393
budDi	-9.71397
▁yava	-9.71408
Bog	-9.71512
▁DArmik	-9.71512
zwi	-9.71516
dvAr	-9.7152
▁AcAra	-9.71523
▁SAp	-9.71605
▁mUrDn	-9.71683
▁varDate	-9.71685
▁vidy	-9.71701
kAriR	-9.71707
▁skanda	-9.71719
▁kOrava	-9.71748
▁kalk	-9.71768
yastu	-9.71808
▁samIpa	-9.71891
▁tElam	-9.71909
▁koSa	-9.72001
▁vasizW	-9.72014
▁budDir	-9.72038
▁arha	-9.72143
▁kumAra	-9.72153
pare	-9.72287
SoB	-9.72326
▁BImaH	-9.72369
vAhanaH	-9.72376
▁badD	-9.72389
▁utpatti	-9.72442
▁svAhA	-9.72469
▁Bukt	-9.72477
▁BUya	-9.72489
▁nirvft	-9.7255
iRI	-9.7258
SrAnt	-9.72595
hetu	-9.72698
▁mAruta	-9.72731
▁kzAr	-9.72787
▁samudra	-9.7281
pAp	-9.72865
▁dine	-9.72944
▁kAYcana	-9.73017
pravakzyAmi	-9.73096
lep	-9.73107
▁akz	-9.73111
jal	-9.73137
rDa	-9.73174
kAraH	-9.73202
stat	-9.73214
▁kfS	-9.73224
▁sahasram	-9.73332
ozR	-9.73355
▁gamizyAmi	-9.73379
▁ari	-9.73383
▁svara	-9.73385
▁sTUla	-9.73394
▁pAtak	-9.73412
▁Sama	-9.73512
tAp	-9.73533
▁DAr	-9.73565
▁alam	-9.73577
▁prayatnena	-9.73597
▁eko	-9.73666
▁pARqavAnAm	-9.73695
▁maheSvaram	-9.73696
▁ISAn	-9.73724
pARi	-9.73762
▁kany	-9.73833
IS	-9.73871
tva	-9.7389
▁sita	-9.73945
▁dayA	-9.73969
SiK	-9.73972
▁ripu	-9.73976
tray	-9.73981
▁kriyatAm	-9.7399
yupa	-9.74043
paraH	-9.74054
gacCati	-9.74058
▁pitAmah	-9.74068
Apnoti	-9.7408
▁BuktvA	-9.74091
▁upari	-9.74134
▁aMSa	-9.74134
▁toya	-9.74146
▁hA	-9.74217
▁Sap	-9.74233
eSvaram	-9.74238
▁BUtam	-9.7427
▁yogI	-9.74321
▁rAmam	-9.74387
▁mAtram	-9.74424
▁hat	-9.74447
▁niScayaH	-9.74489
▁parivft	-9.74663
▁vfttiH	-9.74691
Sar	-9.74701
▁viviDA	-9.74713
▁vaktra	-9.74742
▁SradDA	-9.74749
▁hima	-9.74755
▁janaka	-9.74786
▁durga	-9.74818
▁prAptam	-9.74859
Ariza	-9.74861
▁gacCant	-9.74898
avaS	-9.74911
▁pAka	-9.75126
▁jayet	-9.75132
▁yAc	-9.75164
▁vraRa	-9.75166
▁snigDam	-9.75193
▁garB	-9.75223
fzya	-9.75255
ktA	-9.7526
rakza	-9.75367
▁tyakt	-9.75374
▁janaH	-9.75406
▁maDuram	-9.75424
▁pAtre	-9.75431
Bojan	-9.75431
▁kzip	-9.75467
▁jYa	-9.755
▁yan	-9.75506
▁SiKar	-9.75507
▁siDyati	-9.7553
vAky	-9.75562
▁sAhas	-9.75582
▁vijYAna	-9.7561
▁rakzA	-9.75623
▁viDA	-9.7565
▁lokA	-9.75655
▁vasuDA	-9.75664
▁pfcCat	-9.75666
▁avyakt	-9.75671
varRA	-9.75745
▁pratyakza	-9.75752
▁proktaH	-9.75867
▁muhUrtam	-9.76005
▁anant	-9.76016
▁tizWanti	-9.76055
▁vfttam	-9.76064
▁keval	-9.76145
▁DAtA	-9.76259
maDy	-9.7626
▁viviDE	-9.76294
▁BAzitam	-9.76298
▁papracCa	-9.76317
▁sAttvik	-9.76317
▁purIz	-9.76317
▁avasTit	-9.76319
▁rAtri	-9.76319
▁jAnAti	-9.76388
▁mAl	-9.76412
▁sakt	-9.76416
▁parAm	-9.76442
▁aSvameD	-9.76451
▁krUra	-9.76465
▁samanvitaH	-9.76479
▁lakza	-9.76485
▁dehe	-9.76538
▁SarIre	-9.76548
▁SApa	-9.76565
▁parigrah	-9.76569
▁pAtra	-9.76633
kfzw	-9.76687
▁moh	-9.76716
▁kop	-9.76722
Kil	-9.76765
▁danta	-9.76812
▁BErava	-9.7683
▁ajYAn	-9.76845
aSc	-9.76855
lena	-9.76864
rjun	-9.76916
jYaH	-9.76965
astasya	-9.76997
▁vyasan	-9.7703
▁Bavatu	-9.77034
Ru	-9.77067
▁bahiH	-9.77111
▁Ayatan	-9.77123
▁hfday	-9.77125
▁ojas	-9.77131
▁mahiz	-9.7715
▁raj	-9.77152
▁svADyAya	-9.77195
▁tftIy	-9.77212
rARAM	-9.7722
▁vimala	-9.77285
▁AdyAH	-9.77291
brahma	-9.77291
AraRam	-9.77292
sfzw	-9.77309
▁apA	-9.77323
▁kzatriya	-9.77344
sad	-9.77345
cCat	-9.77361
▁triguR	-9.77401
▁aDik	-9.77436
▁ISvaram	-9.77484
▁vipAk	-9.77492
▁yaSasvin	-9.77549
▁pAdap	-9.77585
▁huta	-9.77604
▁apatya	-9.77647
▁kilbiz	-9.77696
▁viprAH	-9.77718
▁izwa	-9.77724
▁vizaye	-9.77775
▁sve	-9.77888
▁kAYcan	-9.77891
▁muYca	-9.77911
▁samAKyAt	-9.77913
▁vasizWaH	-9.77923
▁kziptvA	-9.77923
▁tfRa	-9.77931
▁nirmita	-9.77938
▁mamA	-9.77945
▁narak	-9.77957
▁pitrA	-9.77973
▁jawA	-9.78052
▁dviDA	-9.78073
▁pAl	-9.78074
▁sit	-9.78096
▁uBaya	-9.78133
▁smftA	-9.78165
▁lakzmaRaH	-9.78224
▁Dft	-9.783
▁mahABAg	-9.78343
▁indrasya	-9.78349
▁alp	-9.78448
▁mayaH	-9.78495
karaH	-9.78502
▁vraR	-9.78525
▁kusum	-9.78532
▁asur	-9.78554
▁krUr	-9.78571
▁cUrR	-9.78574
▁lakzmaR	-9.78577
▁ftu	-9.78625
cAriRaH	-9.78695
▁aDunA	-9.7872
▁ratnAni	-9.78723
▁prAYjali	-9.78727
▁pradA	-9.78759
▁jihvA	-9.78788
▁icCati	-9.78803
▁tatrEva	-9.78807
▁ekEka	-9.7882
▁pAdO	-9.78829
avyay	-9.78844
▁paYc	-9.78869
▁div	-9.7891
cakra	-9.78932
▁sampra	-9.78973
ArTe	-9.79002
rakzit	-9.79032
drava	-9.79054
▁yantra	-9.79063
banDan	-9.79082
▁sfzwi	-9.79108
▁rAg	-9.79141
▁tizWat	-9.79159
▁vajram	-9.79217
▁prayAt	-9.79221
▁kurvat	-9.79233
▁bAhy	-9.79253
▁vAnarAH	-9.79267
▁yogaH	-9.79271
▁AdyEH	-9.79325
▁Atmaj	-9.79358
etad	-9.79388
▁satyena	-9.794
▁nanu	-9.79441
syAmi	-9.79459
▁puruzam	-9.79473
▁varjit	-9.79501
▁tAla	-9.79514
saNg	-9.79514
▁manIziRaH	-9.7953
▁praSast	-9.79536
▁parASara	-9.79544
Sakti	-9.7957
▁putrA	-9.79589
kaP	-9.79621
Iva	-9.79624
▁samanvitam	-9.79643
▁nirmal	-9.79707
BAjan	-9.79713
▁garuqa	-9.79714
▁prAya	-9.79731
gAH	-9.79745
▁dviviDa	-9.79838
pet	-9.799
▁tvak	-9.79968
▁AScarya	-9.79978
▁kartavy	-9.80023
sarva	-9.80036
▁bAD	-9.8004
lAH	-9.80041
▁pAra	-9.80143
▁yajYaH	-9.80164
vaMS	-9.80262
▁kIdfS	-9.8035
▁jaGAn	-9.80351
▁Sastr	-9.8036
▁pratigfhya	-9.8037
jAnAmi	-9.80432
▁mahIpate	-9.80565
▁gfhIta	-9.8059
▁bfhaspatiH	-9.80601
▁arDam	-9.80611
▁idAnIm	-9.80612
cakzuz	-9.8066
▁samADi	-9.80663
▁sAmAnya	-9.80672
▁vESy	-9.80689
▁puruzo	-9.80737
pAR	-9.80777
▁karmaBiH	-9.8078
nopa	-9.80785
yaS	-9.80824
▁carit	-9.80933
▁kzay	-9.80967
kumB	-9.80994
puzp	-9.81002
▁pArTivaH	-9.81078
nyaTA	-9.81106
▁BittvA	-9.81176
▁nfSaMs	-9.81176
▁vigata	-9.81179
▁vaSam	-9.81212
▁strIRAm	-9.8124
vAsin	-9.81262
▁vayas	-9.81316
▁viBIzaR	-9.81332
▁cacAra	-9.81354
▁sTAvara	-9.81386
tIrTe	-9.81422
nanda	-9.81446
▁pratigrah	-9.81466
▁tasy	-9.81468
nizW	-9.81493
▁pfTu	-9.81538
yEva	-9.8155
▁Badram	-9.81618
▁varad	-9.81618
veza	-9.81662
lEH	-9.81702
odit	-9.81711
▁praDAn	-9.81717
▁kartavya	-9.81761
▁karmaRaH	-9.81781
yUTap	-9.82037
▁skanD	-9.82037
ezv	-9.82076
▁Sriyam	-9.82148
▁evaMviD	-9.82174
druma	-9.82177
▁aDaH	-9.82222
▁dUr	-9.8223
▁karza	-9.82246
▁jitvA	-9.82251
stAt	-9.82252
opet	-9.82256
▁yuDizWiram	-9.82273
▁Sakya	-9.82292
▁rakzasA	-9.82333
▁ugr	-9.82345
▁cAnye	-9.82374
kzaya	-9.82379
Sma	-9.82387
▁Srama	-9.82395
▁bahuBi	-9.82402
staM	-9.82464
rzi	-9.82465
▁Sakuni	-9.82467
▁yAtrA	-9.8254
dvij	-9.82547
▁SASvatam	-9.82562
kUw	-9.82567
▁Atmani	-9.82691
▁veDa	-9.82742
▁jitA	-9.82757
▁vyAGr	-9.82769
▁pAS	-9.82801
▁pradakziRam	-9.8284
▁DaraRI	-9.8285
▁niSit	-9.82852
▁vetti	-9.82857
▁aDyAtma	-9.82859
jYayA	-9.8291
▁vyakta	-9.83206
dButa	-9.83238
▁dvijottamA	-9.83248
haraM	-9.8325
▁Boj	-9.8339
sidDaye	-9.83423
▁bfhaspati	-9.83452
▁darSanAt	-9.83515
ukt	-9.83516
kfd	-9.83562
Ac	-9.83591
vartin	-9.8363
▁vI	-9.83663
▁saMvatsara	-9.8367
bd	-9.8367
▁drOpadI	-9.83698
▁divAkara	-9.83699
▁Sasyate	-9.83704
▁apaSyat	-9.83712
▁vedapArag	-9.83726
muktvA	-9.83741
▁putrAn	-9.83811
jas	-9.83887
▁sukfta	-9.83891
▁vahn	-9.83898
vAhan	-9.83914
vftti	-9.83918
eha	-9.83929
▁raso	-9.8399
nut	-9.84023
maR	-9.84046
▁akarot	-9.84055
▁grAma	-9.84148
gatam	-9.84187
▁tulyam	-9.84235
▁yezA	-9.84241
▁preta	-9.84248
ADipa	-9.84249
▁sakft	-9.8434
▁SItam	-9.84383
▁prahar	-9.84444
tIrTam	-9.8449
▁ata	-9.84509
▁bruvat	-9.84552
▁vfTA	-9.84552
▁viBaj	-9.84553
▁SarkarA	-9.84565
▁tejasvI	-9.8457
dvIp	-9.84605
▁dehinAm	-9.84626
▁suhft	-9.84627
DaraH	-9.84654
▁badDvA	-9.84705
▁yacca	-9.84709
vIrya	-9.84715
gacCat	-9.84753
▁akzaram	-9.84779
▁snAnam	-9.84817
▁Gftam	-9.84859
▁avasTA	-9.84969
▁vipula	-9.85078
▁prAptA	-9.85144
▁damaH	-9.85236
▁vinay	-9.85364
▁sUtam	-9.85368
▁lepa	-9.85387
sarga	-9.8541
▁kalO	-9.85428
▁yOvana	-9.85429
droh	-9.85431
▁SataSaH	-9.85432
▁cakzuzA	-9.85442
pramAR	-9.85484
EzA	-9.85492
▁vfzwi	-9.85493
▁pARq	-9.85504
▁carma	-9.85518
ozRa	-9.85588
▁BAvita	-9.856
▁azwaka	-9.85673
smAd	-9.85676
▁patat	-9.85734
rUpeRa	-9.85736
▁mahAtmA	-9.85759
▁samaya	-9.85766
▁icCA	-9.85769
▁jYAti	-9.85818
▁udak	-9.85829
▁Cinna	-9.85829
▁puruzA	-9.85873
▁SAsan	-9.85947
▁Sezam	-9.86002
varza	-9.86004
Antak	-9.8601
gacCa	-9.86125
▁toy	-9.86132
▁pitAmaham	-9.86194
mftyu	-9.86245
▁droRam	-9.86256
▁prakftiH	-9.86259
▁sfYjay	-9.86284
▁Adad	-9.86316
▁BUri	-9.8632
▁nIl	-9.86346
▁sidDaH	-9.86353
▁aDikam	-9.86366
▁Bay	-9.86393
▁etasmin	-9.86444
▁kartu	-9.86513
▁mantriR	-9.86598
▁dakz	-9.86642
ruk	-9.86644
karmAR	-9.86694
▁jAtam	-9.86721
▁raSmi	-9.86823
anEH	-9.86836
▁paRqit	-9.86857
▁nimitt	-9.86874
kzay	-9.86894
gnir	-9.86899
Asi	-9.86901
▁AcAry	-9.87077
mahe	-9.87104
▁agninA	-9.87118
virecan	-9.87165
▁atyanta	-9.87171
nant	-9.87178
cezwit	-9.87185
vind	-9.87257
▁saMSay	-9.87268
▁mudga	-9.87271
▁jYeyaH	-9.87273
▁AB	-9.87279
▁BAga	-9.87306
▁pavana	-9.87324
▁mAsi	-9.87365
pateH	-9.87372
▁tayor	-9.8741
Etad	-9.87501
▁kevalam	-9.87552
▁hate	-9.87628
▁SayyA	-9.87645
raRya	-9.87705
oday	-9.87707
Palam	-9.87717
▁Bagn	-9.87784
▁Ur	-9.878
▁yaS	-9.8787
▁pAk	-9.87911
▁SUnya	-9.88011
▁kOSik	-9.88046
▁gacCAm	-9.88046
▁svapne	-9.88056
▁vapuH	-9.88062
▁apsaras	-9.88081
▁saciv	-9.88086
▁Suzka	-9.8814
▁purARam	-9.8817
▁pAvak	-9.88216
▁pradadO	-9.88239
▁SA	-9.88246
niScay	-9.88278
▁mUtr	-9.88339
dik	-9.88378
karmaRA	-9.88388
▁cAsya	-9.88416
AstaTA	-9.88447
▁pARqavA	-9.88464
▁viDAna	-9.88542
▁SAnta	-9.8858
stya	-9.88586
▁saritaH	-9.88652
▁cEvA	-9.88739
▁tAsAm	-9.88745
ezAm	-9.88772
▁pulastya	-9.88796
▁tejas	-9.88804
▁prasIda	-9.88811
▁SAka	-9.88816
▁viparIt	-9.88881
nAga	-9.88888
▁zaq	-9.88896
▁vIry	-9.88904
▁gulma	-9.88917
▁svaDarm	-9.88922
▁SUny	-9.88953
▁vfzRi	-9.88974
▁manyu	-9.89016
deSe	-9.89036
▁SayAn	-9.89085
jAyate	-9.89101
juzw	-9.89101
▁kAkutsTa	-9.89104
▁vftra	-9.89107
▁lokapAl	-9.89113
TAH	-9.89124
▁maraR	-9.89136
▁sarit	-9.8914
pravar	-9.89171
▁tasyAm	-9.89182
▁kaSyap	-9.89229
▁vAsava	-9.89324
▁paSyet	-9.89337
paryant	-9.8935
loB	-9.89388
▁ramya	-9.894
ruh	-9.89406
▁anala	-9.89511
▁kArye	-9.8957
▁acal	-9.89579
▁priyaH	-9.8966
▁kaTaya	-9.89711
▁Ama	-9.89712
▁tIrTAn	-9.89756
▁anyA	-9.89757
▁guroH	-9.8984
▁kUrma	-9.8984
▁Kaqga	-9.8984
▁nahuz	-9.89843
▁viSrutaH	-9.89846
▁vismit	-9.89867
▁saMvatsar	-9.8987
▁dAra	-9.89872
▁praBum	-9.89879
▁SaMsa	-9.89903
▁janapad	-9.89924
▁viSezaH	-9.89936
▁kAryaH	-9.89945
BAvAt	-9.89954
▁DArayet	-9.89979
▁pArad	-9.89997
parvat	-9.90031
▁vaSe	-9.90079
zyAmi	-9.90085
sIt	-9.90098
▁vyAp	-9.90106
▁vibuD	-9.90141
▁mudA	-9.9019
▁viSAl	-9.90213
▁roma	-9.90278
▁nirguR	-9.90282
▁cit	-9.90284
nyAsa	-9.90316
▁drazwu	-9.90325
▁sTAne	-9.90389
tIti	-9.90406
▁rAzwra	-9.90411
haraRa	-9.90476
DO	-9.90514
▁yajYe	-9.90517
yuvAca	-9.90635
▁vijaya	-9.90649
▁samAhit	-9.90666
▁tatr	-9.90681
veD	-9.90695
▁striya	-9.90745
▁lalAw	-9.90749
▁purohit	-9.90749
▁viSizyate	-9.90757
mayo	-9.90773
▁dAyAd	-9.90822
▁pavan	-9.90841
pattra	-9.90893
ktam	-9.90916
Basma	-9.90928
▁gaREH	-9.90987
tyarTaH	-9.90995
▁kzudra	-9.91002
▁matvA	-9.91007
▁agnO	-9.91024
yarTa	-9.91027
▁prakASa	-9.91039
▁kurvAR	-9.91048
▁rOdr	-9.91087
▁akft	-9.91109
▁abruvan	-9.91158
ASI	-9.91162
vizay	-9.91245
▁parasya	-9.91264
yI	-9.91264
▁mantraH	-9.9136
▁tacca	-9.9138
▁patim	-9.91401
▁praDAnam	-9.9143
▁anyonyam	-9.91441
▁buDaH	-9.91452
▁Asana	-9.91468
▁stamBa	-9.915
▁tEr	-9.91528
▁vfzya	-9.91561
odaka	-9.91575
opama	-9.91603
▁ikzvAku	-9.91666
▁Bartf	-9.91667
▁kElAsa	-9.91678
vratam	-9.91707
▁rucya	-9.91723
▁vicitra	-9.91731
▁apaham	-9.91758
▁parameSvaraH	-9.91821
nimitt	-9.91847
mftaM	-9.91909
▁aSan	-9.91956
▁pramARa	-9.91988
mUrt	-9.92007
▁viSudDa	-9.9209
▁vAd	-9.92097
▁kAnti	-9.92098
▁vyAs	-9.92115
▁taruR	-9.92121
▁puzkar	-9.92124
sADana	-9.92151
▁eken	-9.92167
▁DUma	-9.92254
▁uktAH	-9.92284
BaNg	-9.92337
▁Arogya	-9.92409
maDu	-9.92416
▁indriyaH	-9.92427
▁mand	-9.9243
▁BAgam	-9.92435
▁raTam	-9.92468
▁maDurA	-9.92475
▁sAtyakiH	-9.92487
▁dadAm	-9.92532
▁sTiti	-9.92556
▁jyA	-9.92588
▁karomi	-9.92594
▁yamunA	-9.92596
▁kurukzetr	-9.9261
▁yujyate	-9.92616
▁mEtreya	-9.92618
pAna	-9.9262
▁AtmAn	-9.92642
▁cakruH	-9.92661
▁fzaB	-9.92722
piRq	-9.92726
▁lAB	-9.92769
▁tftIya	-9.92807
▁GrARa	-9.92822
▁astram	-9.92837
▁icCatA	-9.92864
▁CAyA	-9.92875
▁niyata	-9.92876
▁itaH	-9.92897
▁Akul	-9.92906
▁BaradvAja	-9.92916
endriya	-9.92927
Ambu	-9.92928
▁rUpya	-9.92929
nantar	-9.92956
▁vAsaH	-9.92961
▁acyuta	-9.9301
▁mftam	-9.93052
▁hanyAt	-9.93056
▁vikramaH	-9.93071
▁hfdaye	-9.93164
▁vicitr	-9.93213
vatsa	-9.93224
▁SrezWA	-9.93232
plut	-9.93235
▁KyAtaH	-9.93252
▁tyakta	-9.93387
▁pratizWA	-9.93402
▁paramAm	-9.93439
▁vasati	-9.93481
▁kAzW	-9.93511
▁yAjYavalky	-9.93527
▁hetoH	-9.93528
▁veSma	-9.93528
▁govinda	-9.93537
▁nAqI	-9.93537
▁pratyaya	-9.9354
▁candr	-9.93553
puzw	-9.93559
karR	-9.93566
veSa	-9.9358
▁vizRum	-9.93587
▁arD	-9.93606
ratA	-9.93648
▁aDama	-9.93652
caryA	-9.93653
▁carita	-9.93734
▁viduraH	-9.93866
Goz	-9.93876
▁drupada	-9.93944
▁vikrAnt	-9.93954
▁cApya	-9.93958
Av	-9.93969
▁mahya	-9.94078
duzw	-9.94087
▁kaRWa	-9.94093
▁prItiH	-9.94107
▁Bakta	-9.94146
▁mahABAgA	-9.94182
▁prasUt	-9.94232
aTE	-9.94259
smAk	-9.94425
▁puruzottama	-9.94439
▁samIkzya	-9.9447
▁saMvart	-9.94474
purogamAH	-9.94475
▁rahasy	-9.94476
▁parya	-9.94493
cAriR	-9.94499
▁daSam	-9.94526
kANkziR	-9.9454
▁vidaD	-9.94551
▁leB	-9.94555
▁samBavaH	-9.94564
▁syA	-9.94569
saMskAr	-9.94571
▁varzARi	-9.94662
▁kurURAm	-9.94666
▁Sakyam	-9.94669
parIt	-9.94694
▁niyog	-9.94708
▁Binn	-9.94722
▁samAn	-9.9473
▁vah	-9.94745
rakt	-9.94769
▁eke	-9.94805
▁kzaRam	-9.9482
▁Bezaja	-9.94876
dfS	-9.94892
▁rasAyan	-9.94931
▁vayaH	-9.94997
Ardra	-9.95027
nATa	-9.9503
▁sADyA	-9.95031
vidD	-9.95046
▁Sukl	-9.95074
▁sattamA	-9.9513
▁samAyukt	-9.95159
sfjat	-9.95181
▁brahmARam	-9.95235
▁varg	-9.9536
▁dIpa	-9.95382
▁dvitIya	-9.9541
▁manvantar	-9.95423
▁agne	-9.95474
▁rAmo	-9.95479
▁sirA	-9.95487
▁yUya	-9.95583
kowi	-9.95693
▁viGna	-9.95793
▁saMvAda	-9.95797
SuB	-9.95864
▁apya	-9.95875
▁aDipaH	-9.95885
BayaM	-9.95888
▁nivAs	-9.95944
▁kfzRA	-9.95974
▁mahatI	-9.96066
▁brAhmaRo	-9.96079
▁tavA	-9.96083
▁payaH	-9.9615
▁sarvEr	-9.96175
vasTit	-9.96179
▁asyAH	-9.96367
▁drORi	-9.96384
▁pulaha	-9.96384
▁keS	-9.96426
▁sEnDava	-9.96426
▁brAhmaRAnAm	-9.96508
▁pramAd	-9.96534
▁pala	-9.96555
▁AkAr	-9.96583
DAt	-9.96708
▁sADAraR	-9.96717
▁hitA	-9.96724
▁vinASa	-9.96799
▁salila	-9.96832
▁patitA	-9.96861
▁vastu	-9.96926
▁roz	-9.96933
▁imAn	-9.97027
▁nASanam	-9.97037
Agama	-9.97037
▁vidaH	-9.97083
▁yaSas	-9.97113
▁vidura	-9.97113
syeva	-9.97232
astadA	-9.97257
stan	-9.97274
▁prasaNg	-9.97299
▁vedAH	-9.97317
Kal	-9.97322
Arjav	-9.97351
▁rAjYo	-9.97356
▁harim	-9.97357
▁SamBu	-9.97357
▁sfj	-9.97358
▁pAvan	-9.97369
tIt	-9.97373
▁sutAH	-9.97376
▁vedA	-9.97379
▁tAmas	-9.97383
▁BAvayet	-9.97412
▁vaDy	-9.97428
▁vasat	-9.97436
▁gantum	-9.97445
Asanam	-9.97448
▁pralaya	-9.97465
dvaya	-9.97474
▁Danuz	-9.97477
▁aDyayana	-9.97482
saMsT	-9.97499
▁sADv	-9.976
▁varuRa	-9.97609
▁teByaH	-9.97644
ktaM	-9.97657
loke	-9.9767
▁hfdayam	-9.97676
▁pitara	-9.97726
▁kopa	-9.97765
▁BftA	-9.97816
▁Sakun	-9.97818
▁vraja	-9.97823
▁AkASam	-9.97839
vasan	-9.9786
dAs	-9.97873
▁lI	-9.97875
▁hiMsA	-9.97893
▁nAsA	-9.97955
▁Baj	-9.9796
▁val	-9.98132
patat	-9.98139
▁yogam	-9.98143
ekzaR	-9.9823
mBo	-9.98233
▁udakam	-9.98238
viMSa	-9.98241
▁agre	-9.98262
▁nivas	-9.98293
▁dant	-9.98305
▁DyAtvA	-9.98336
▁vizRunA	-9.98345
▁dIpyamAn	-9.98346
dugD	-9.98376
▁hareH	-9.98394
▁dEvam	-9.98456
▁yadu	-9.98465
▁madya	-9.98467
▁vajr	-9.98575
▁tejasaH	-9.98581
▁akzay	-9.98619
gataH	-9.9867
▁jAH	-9.98685
▁varzam	-9.98709
dfk	-9.98753
▁varRam	-9.98762
▁viviDa	-9.98772
▁anyac	-9.98784
▁puzkara	-9.98836
▁Sreyas	-9.98884
▁vaSI	-9.98885
nyat	-9.98915
▁catvAri	-9.99052
kriy	-9.99076
▁kamala	-9.99098
iha	-9.99104
Asana	-9.99219
▁guRA	-9.99222
parAyaRaH	-9.99251
▁Bavana	-9.9926
▁dvApare	-9.99325
▁grAhya	-9.99325
▁sAraTi	-9.99325
▁hIyate	-9.99326
▁pAke	-9.99343
▁sarpiH	-9.99361
▁aMSam	-9.99368
▁samet	-9.99388
▁SrAdDam	-9.9943
▁SuBr	-9.99433
AtmajaH	-9.99489
▁pade	-9.99499
▁yoginaH	-9.995
▁SlokaH	-9.99592
▁vESya	-9.99597
▁karmA	-9.99603
▁yAma	-9.9965
▁vidyut	-9.99721
▁jYAta	-9.99729
kAraRam	-9.99781
▁gIta	-9.99804
▁gacCe	-9.99826
▁apekz	-9.99855
▁prAjYaH	-9.99898
▁dagDa	-9.9994
▁haMs	-9.99999
vfz	-10
▁AtmajaH	-10.0002
maRi	-10.0013
krAma	-10.0018
▁vasanti	-10.0019
▁vIryeR	-10.0021
▁dvijAtayaH	-10.0033
▁BartuH	-10.0033
▁goptA	-10.0033
▁rukma	-10.0033
▁mayUr	-10.0033
▁vihAya	-10.0034
▁daSagrIva	-10.0034
▁piRq	-10.0035
▁SAstram	-10.0035
pratizeD	-10.0036
▁sadfSam	-10.0038
▁kftsnam	-10.0039
▁tenEva	-10.0039
▁DaraH	-10.0046
▁hfzwA	-10.005
rjuna	-10.0053
nAma	-10.0054
▁marma	-10.0054
▁kftArT	-10.0055
▁BartAram	-10.0057
tat	-10.0057
▁rav	-10.0063
kANkz	-10.0063
▁naSyati	-10.0065
rASi	-10.0067
▁etezAm	-10.0067
▁Kal	-10.0073
▁vizRur	-10.0079
▁SUrA	-10.0081
▁DAt	-10.0091
muKy	-10.0108
▁apriy	-10.011
BftAM	-10.0113
▁pradam	-10.0114
viBAg	-10.0116
▁buDEH	-10.0117
▁aparAD	-10.0122
▁guRam	-10.0123
endriy	-10.0125
▁deSam	-10.0125
▁Boga	-10.0129
▁lohita	-10.0129
▁tacC	-10.013
▁modate	-10.0134
▁trIRi	-10.0134
▁praviveSa	-10.0134
▁pASupat	-10.0134
▁vindati	-10.0134
▁kvAT	-10.0134
▁nityaSaH	-10.0135
▁viDAnena	-10.0136
▁Dfzwadyumna	-10.0139
▁nfpate	-10.0139
▁sarvalok	-10.0139
sUn	-10.0142
▁mardya	-10.0142
▁viSvAsa	-10.0145
▁paro	-10.0146
▁bAnDavAH	-10.0146
kaR	-10.0147
▁mahAtmAnam	-10.0158
hf	-10.0159
▁rUpARi	-10.0159
▁AcAr	-10.0168
▁prAkft	-10.0169
▁gocar	-10.0172
▁aparaH	-10.0189
pfzW	-10.019
▁kAmam	-10.0192
▁paramAM	-10.0195
nirudD	-10.0195
enApi	-10.0199
▁mAlA	-10.02
prasT	-10.0205
ezwa	-10.0208
trAR	-10.0216
▁maraRa	-10.0216
▁taTEvA	-10.0217
▁Ayuz	-10.0217
▁vedanA	-10.0228
▁SfRvat	-10.0236
▁bahavo	-10.0236
▁kfzRadvEpAyan	-10.0236
▁marIci	-10.0236
▁pUjayitvA	-10.0236
▁aBAzata	-10.0236
▁sAtvat	-10.0236
▁mAyayA	-10.0238
▁hfzIkeSa	-10.0238
jYAnam	-10.0254
▁Sarad	-10.0258
▁parAkramaH	-10.0262
hut	-10.0264
▁gAtr	-10.0265
parAjit	-10.0271
bruvan	-10.0272
▁meDA	-10.0272
rakta	-10.0277
inO	-10.0277
▁vaDaH	-10.0283
▁kzaye	-10.0284
Antare	-10.0287
▁prajAnAm	-10.0288
▁kfzRam	-10.0293
▁Baga	-10.0307
▁udaka	-10.0308
▁kAka	-10.0309
karmA	-10.0312
▁hite	-10.0315
▁viBIzaRaH	-10.0319
▁hatAH	-10.0321
tapas	-10.0323
mala	-10.0331
Atmano	-10.0335
candra	-10.0337
▁kfmi	-10.0339
▁DArmikaH	-10.034
▁haret	-10.0345
▁SOca	-10.0348
▁rAjYAm	-10.0349
▁sAtyaki	-10.035
▁IkzaR	-10.0351
▁Suk	-10.0352
▁prayacCati	-10.0353
▁brUyAt	-10.0355
▁dig	-10.0355
▁yadya	-10.0357
jYo	-10.036
ScAny	-10.0367
▁DyAy	-10.0369
kopa	-10.0375
▁fziBiH	-10.0376
Amalak	-10.0387
▁mahAdev	-10.0393
▁paSye	-10.0397
gato	-10.0402
▁pAradaH	-10.041
gAr	-10.0411
BUd	-10.0414
kzep	-10.0418
Upa	-10.0421
jYAna	-10.0428
kamp	-10.0429
▁nivftti	-10.043
▁jvaraH	-10.0431
▁nUna	-10.0435
aRe	-10.0439
kroSa	-10.0442
▁maRqalam	-10.0443
▁durDarz	-10.0449
▁kftakfty	-10.0449
▁jAnAmi	-10.0452
▁svAmin	-10.0455
▁hare	-10.0455
▁yotsy	-10.0456
▁lomaSa	-10.0459
▁namaste	-10.0462
eza	-10.0469
▁ESvaryam	-10.0473
▁guRaH	-10.0476
pala	-10.0479
▁hom	-10.048
▁gayA	-10.0482
▁BUyo	-10.0484
mfd	-10.0485
▁upamA	-10.0485
▁prasTit	-10.0489
▁sarAMs	-10.0494
padaM	-10.0499
▁paramAtmA	-10.0501
▁naKa	-10.0502
▁AdiBiH	-10.0507
▁pASa	-10.0512
▁samAvft	-10.0513
dravat	-10.0515
▁oG	-10.0515
▁sant	-10.0516
▁aparA	-10.0523
ottara	-10.0527
▁vasan	-10.0529
▁SataM	-10.0539
▁cikzepa	-10.0548
▁kapot	-10.0548
▁dvayoH	-10.0548
▁gantA	-10.0548
▁gurav	-10.0548
▁lajj	-10.0549
▁sAkzAd	-10.0549
▁apahaH	-10.0549
▁duhitA	-10.0549
▁kAya	-10.0552
▁tenA	-10.0552
▁paruza	-10.0553
▁vEdy	-10.0555
yatnena	-10.0555
▁samasta	-10.0558
etat	-10.0562
▁jambIra	-10.0565
▁parezA	-10.0567
▁vizAda	-10.0569
DAraRam	-10.0571
▁nAs	-10.0573
rTA	-10.0574
▁SirasA	-10.0579
▁vaNga	-10.0581
▁dUzaR	-10.0588
AnIk	-10.0592
▁pAvakaH	-10.0594
iva	-10.0597
▁dfSya	-10.0598
ByAs	-10.06
sahasrARi	-10.0608
Ari	-10.0613
praveS	-10.0618
Ikftam	-10.0618
▁ABaraRa	-10.062
▁nakulaH	-10.0623
▁SivAya	-10.0624
▁brAhmaREH	-10.0625
▁dUra	-10.0626
dat	-10.0628
▁lubD	-10.063
▁astrAR	-10.0632
tvAt	-10.0635
bAh	-10.0636
vikalp	-10.0638
cikits	-10.0638
AKyAna	-10.0641
▁ambara	-10.0646
▁vyaTit	-10.0655
▁dIyate	-10.0655
▁upavizw	-10.0655
▁spfS	-10.0657
▁hantum	-10.0657
▁muktaH	-10.0659
▁girA	-10.0663
▁smftiH	-10.0667
▁Arta	-10.0668
▁DarmArTa	-10.0673
cetan	-10.0673
patan	-10.0673
rTo	-10.0674
▁vIrO	-10.0674
▁kaRwak	-10.0682
▁viparIta	-10.0685
▁ityuktvA	-10.0686
▁cEk	-10.0686
▁nIt	-10.0691
▁pARqavEH	-10.0694
▁kaliNg	-10.0695
▁vigraha	-10.0713
▁pUjitaH	-10.0713
▁vaman	-10.0716
▁Druvam	-10.0717
▁satyA	-10.0721
▁pUrve	-10.0728
nASanam	-10.0732
▁DftiH	-10.0735
dBiH	-10.0737
vasTA	-10.074
grIv	-10.074
▁sOmy	-10.0743
▁yav	-10.0743
gad	-10.0744
▁kOtUhala	-10.0744
BAge	-10.0745
▁gulm	-10.0746
▁vastr	-10.0747
▁kirIw	-10.0751
▁antaka	-10.0751
▁latA	-10.0753
▁divase	-10.0756
krameRa	-10.0756
pradAn	-10.0761
▁kapil	-10.0764
▁baBUvuH	-10.0764
▁AdayaH	-10.0765
▁jYeyA	-10.0768
pta	-10.0768
mokza	-10.077
SataM	-10.0776
vasu	-10.0779
▁SvA	-10.078
▁brahmacAriR	-10.0781
▁SOnaka	-10.0783
▁kzetrajYa	-10.0785
pUrR	-10.0792
AdyA	-10.0795
▁pAvaka	-10.0803
▁manasi	-10.0805
▁vaDe	-10.0805
▁pARqur	-10.0806
▁adButa	-10.081
prasAd	-10.0813
sTo	-10.0817
▁varRAH	-10.0818
▁anft	-10.0819
▁praSaMsant	-10.083
▁kuzW	-10.0831
granT	-10.0835
kuRq	-10.0836
syApi	-10.0843
▁pItam	-10.0845
▁SoBanam	-10.0845
▁BImasenaH	-10.0852
▁udar	-10.0854
▁nihan	-10.0859
▁SiKaRq	-10.0862
saMyog	-10.0864
▁bruvAR	-10.0871
▁vinaSyati	-10.0871
puwa	-10.0871
▁ramate	-10.0872
▁cAru	-10.0872
▁duzkfta	-10.0875
▁utpadyate	-10.0876
▁kurava	-10.0879
Sru	-10.088
▁ASramam	-10.0882
▁Aj	-10.0892
▁SyAma	-10.0894
▁pratyakzam	-10.0895
mucyate	-10.0898
SArdUla	-10.09
▁vimokz	-10.09
▁AkASe	-10.0904
tattva	-10.0905
▁vadatA	-10.0909
Indr	-10.0909
nirmukt	-10.0915
▁kimarT	-10.0917
▁eti	-10.0918
▁pArTivAH	-10.0918
paw	-10.0921
▁ASA	-10.0926
▁izu	-10.0931
▁DUm	-10.0931
nirmit	-10.0944
yuktam	-10.0944
▁kAraRAt	-10.0944
vyADi	-10.0945
▁kaTitaH	-10.0949
▁Cid	-10.095
▁prasanna	-10.0962
▁citt	-10.0965
▁hitaH	-10.0965
▁pattra	-10.0967
▁jIvant	-10.0971
▁BrAtf	-10.0972
▁ahiMsA	-10.0973
▁yuktAH	-10.098
▁vArzReya	-10.0981
▁BuYjIta	-10.0981
▁upasTit	-10.0981
▁kalyARa	-10.0986
▁praRav	-10.0986
yuktaH	-10.0988
▁kzut	-10.0988
▁kAlo	-10.0989
▁pratipadyate	-10.0993
▁rudrasya	-10.0998
▁SrutaH	-10.1001
saMbanD	-10.1003
▁matim	-10.1004
▁niboData	-10.1005
▁prapitAmah	-10.1007
▁praBam	-10.101
▁jaH	-10.1011
▁prItyA	-10.1011
▁anvitaH	-10.1017
▁gamanam	-10.1018
▁devarAja	-10.1026
karot	-10.1028
▁SarAn	-10.1032
vyAGr	-10.1033
▁yaM	-10.1035
▁manuj	-10.1036
▁hInaH	-10.1036
▁puruzAH	-10.1041
▁SaSa	-10.1046
▁vinIt	-10.1051
▁Dfta	-10.1052
▁mantreRa	-10.1062
▁maraRam	-10.1063
BAra	-10.1065
sTAna	-10.1068
▁SrUyatAm	-10.1075
▁BavizyAm	-10.1075
▁tapasvin	-10.1077
▁gOtamaH	-10.1082
▁anDaka	-10.1084
▁niD	-10.1084
▁anarT	-10.1085
▁samAgatAH	-10.1091
▁kanyAm	-10.1092
▁asmABiH	-10.1092
▁raGunandana	-10.1092
viSArad	-10.1092
▁durjay	-10.1094
▁prayojanam	-10.1094
▁Sukr	-10.1094
▁pitur	-10.1095
▁BUti	-10.1095
▁upapann	-10.1095
▁AdInAm	-10.1095
▁bale	-10.1096
▁kuruzva	-10.11
vaca	-10.1105
▁pret	-10.1106
▁fzIRAm	-10.111
▁setu	-10.111
▁syur	-10.1113
tve	-10.1113
▁guqa	-10.1117
pitt	-10.1123
▁mAnasaH	-10.1125
Agra	-10.1126
▁umA	-10.1129
▁kaRW	-10.1136
▁bAlaH	-10.1139
▁vyavasTitaH	-10.1145
mAtreR	-10.115
▁aruR	-10.1152
▁antarikz	-10.1153
▁yojana	-10.1154
▁drupad	-10.1154
▁pArSva	-10.1157
▁keSavaH	-10.1157
AraRy	-10.1158
▁sadfSaH	-10.1158
▁sAkzi	-10.116
▁virAw	-10.116
▁trayARAm	-10.116
▁dIp	-10.1163
dal	-10.1171
▁guhy	-10.1172
SUl	-10.1174
▁uttare	-10.1176
yasva	-10.1179
▁rAkzasAn	-10.118
▁tU	-10.1181
▁rudrA	-10.1189
▁OzaDam	-10.1199
ArDa	-10.1202
▁dAnavAH	-10.1203
▁CittvA	-10.1204
▁bfMhaR	-10.1204
▁paryApt	-10.1204
▁Kecar	-10.1204
▁viSrutam	-10.1205
▁viditvA	-10.1205
▁nirvARa	-10.1205
▁kumBakarRa	-10.1205
▁mumoca	-10.1206
▁gurU	-10.1206
▁mriyate	-10.1207
▁yAdav	-10.121
▁samprekzya	-10.1217
nnaM	-10.1224
▁dama	-10.1225
▁raktam	-10.1225
Arcan	-10.1234
cala	-10.1237
▁SuSrUzA	-10.1239
▁tfpti	-10.1246
▁Dfti	-10.1247
▁zoqaS	-10.1251
▁gOra	-10.1255
▁Sriy	-10.1256
▁vidAm	-10.126
▁naro	-10.1261
anuttamam	-10.1262
▁cittam	-10.1267
▁SvetA	-10.1267
▁kzep	-10.1271
▁vIrAH	-10.1272
SEl	-10.1273
▁pratij	-10.1274
▁apara	-10.1274
syEva	-10.1282
▁agnim	-10.1285
AMSu	-10.1297
▁sTAvar	-10.1299
jAnIhi	-10.13
▁kftsn	-10.13
Dika	-10.1301
▁balinA	-10.1301
▁vasA	-10.1307
▁nAnya	-10.1308
▁kzatriyaH	-10.1312
▁savyasAcin	-10.1318
▁varizW	-10.1318
▁gAnDarv	-10.1318
▁kftavarmA	-10.1318
▁ganDamAdan	-10.1318
▁dayit	-10.1318
▁arRav	-10.1318
▁pracakz	-10.1318
▁carAcar	-10.1318
▁varAnan	-10.1319
▁kziti	-10.1319
▁laByate	-10.1319
▁pAtAla	-10.1319
▁devadeveSa	-10.132
paraM	-10.1321
▁prajApateH	-10.1321
▁BAti	-10.1321
Arta	-10.1325
▁dahat	-10.1325
▁uktavAn	-10.1329
Dvani	-10.1329
aSrezWa	-10.1329
▁indriyARi	-10.1331
▁GnaH	-10.1332
sura	-10.1333
pitta	-10.1336
▁Ced	-10.1343
▁aYjali	-10.1344
▁prARin	-10.1347
▁saNga	-10.1349
▁paYcamaH	-10.135
▁SaSi	-10.1351
▁putreR	-10.1354
▁sarvakAm	-10.136
sUta	-10.1363
▁catvAr	-10.1365
yojan	-10.1371
▁sanAtan	-10.1381
▁viroD	-10.1382
▁mahIm	-10.1392
▁SOnakaH	-10.1411
deha	-10.1413
▁coktam	-10.1421
izyate	-10.1425
rbud	-10.1427
▁mEtr	-10.143
strI	-10.1431
▁Suzk	-10.1432
▁BuNkte	-10.1433
▁SarmizW	-10.1433
▁udAharanti	-10.1433
▁bfhadaSva	-10.1433
▁AramB	-10.1433
▁hantA	-10.1434
▁catuzwayam	-10.1434
▁asra	-10.1435
▁sADanam	-10.1438
kAriRaH	-10.144
▁SravaR	-10.1441
▁cetasA	-10.1443
▁deham	-10.1447
▁icCanti	-10.1448
▁vaSy	-10.1448
▁taducyate	-10.1451
▁kartavyaH	-10.1456
▁nftya	-10.1456
▁pOruz	-10.1458
▁kroDaH	-10.1459
▁paScime	-10.1459
DIt	-10.1459
▁Sizw	-10.1461
▁vaDam	-10.1464
nyo	-10.1465
▁anugraha	-10.1465
▁tfpt	-10.1467
▁Palguna	-10.1471
▁antam	-10.1475
▁akzar	-10.148
Atmakam	-10.1491
▁dvitIyaH	-10.1494
▁manuja	-10.1497
srAv	-10.1498
▁vatsar	-10.1498
▁nimitta	-10.1501
rAzwr	-10.1508
Amyaham	-10.1512
▁mardana	-10.1512
▁kleSa	-10.1513
▁traya	-10.1516
▁kaTayant	-10.1516
▁keSa	-10.1518
▁budDa	-10.1525
▁mitrAR	-10.1529
lakzaRa	-10.1541
▁drOpady	-10.1549
▁bIBatsu	-10.1549
▁jAmbUnada	-10.1549
▁dyUta	-10.1549
▁suvratAH	-10.1549
▁BrAtu	-10.155
▁urag	-10.155
▁dahan	-10.155
▁vinazw	-10.1552
▁kzuDA	-10.1552
▁Srotriy	-10.1553
▁kAryARi	-10.1553
▁fc	-10.1554
▁AyuzaH	-10.1554
▁dAtum	-10.1555
▁kftsnA	-10.1555
▁gokarR	-10.1555
keSa	-10.1556
▁sarvaloka	-10.1557
▁kamp	-10.1558
▁mAtaram	-10.156
▁praSAnt	-10.1562
▁yutam	-10.1564
▁yoginAm	-10.1569
▁Atura	-10.157
▁pfzwaH	-10.1574
▁BAge	-10.1577
▁carati	-10.1577
▁vinASAy	-10.1578
▁prAtaH	-10.158
dravya	-10.158
▁dIpanam	-10.158
▁tIkzRam	-10.1591
▁aBimuK	-10.16
▁aSma	-10.16
▁ityeva	-10.1609
▁adfSya	-10.1613
▁paryAy	-10.1613
▁mAza	-10.1615
▁aBAve	-10.1619
▁varze	-10.1622
▁mAhAtmya	-10.1622
▁rOdra	-10.1623
▁sAmAny	-10.1624
▁apAn	-10.1632
vasA	-10.164
▁pibe	-10.1641
paYca	-10.1642
▁vedAn	-10.1648
▁bARE	-10.1651
▁karI	-10.1656
▁nakzatra	-10.1658
▁Catr	-10.1667
▁raTe	-10.1667
▁mAdrI	-10.1667
▁payasA	-10.1667
▁vimalA	-10.1667
▁biBe	-10.1667
gfhRan	-10.1669
▁anyezAm	-10.1669
▁tyaja	-10.1671
▁pramadA	-10.1671
▁kAmarUp	-10.1673
▁candan	-10.1673
mardan	-10.1681
▁Apad	-10.1685
▁nyAya	-10.1686
sita	-10.1686
mUrti	-10.1687
▁asyA	-10.169
mAnasya	-10.169
▁Gore	-10.1692
pUjan	-10.1694
▁GorA	-10.1697
▁kOsalyA	-10.1698
▁BfguH	-10.1701
▁vistareRa	-10.1702
syAsya	-10.1703
▁aparAjita	-10.1705
ASraya	-10.1708
▁aNgiras	-10.1709
Seza	-10.1711
▁tuzwi	-10.1715
▁tejo	-10.1716
▁matta	-10.1718
▁praBAva	-10.173
▁pratIt	-10.1734
▁nizWA	-10.1734
▁mUrDani	-10.1734
tezAM	-10.1735
▁tasT	-10.1742
▁tftIye	-10.1743
▁SaNK	-10.1745
▁Siro	-10.175
▁homa	-10.1751
▁nakula	-10.1753
bravI	-10.1763
▁gAtra	-10.1763
kzayA	-10.1765
▁Slok	-10.1766
▁SaktyA	-10.1769
▁OzaDa	-10.1775
▁Dvaja	-10.1776
▁atri	-10.1776
▁rUpaH	-10.1778
vallI	-10.1783
▁BrAtrA	-10.1786
▁srazw	-10.1787
▁kekay	-10.1788
▁yasmAd	-10.1789
▁Bujag	-10.1789
▁striyA	-10.179
▁tIre	-10.1791
▁sasarj	-10.1792
▁anvitam	-10.1792
▁vaset	-10.1798
▁etena	-10.1799
hrad	-10.1804
▁SAKA	-10.1807
▁vijYAnam	-10.1808
▁jyezWaH	-10.181
▁SItalam	-10.1816
▁prARaH	-10.1817
▁AyuDa	-10.1817
▁suganD	-10.1821
▁sahA	-10.1823
▁nihataH	-10.1827
tulya	-10.1828
▁Srotram	-10.183
▁parAkram	-10.1834
▁pfzWa	-10.1836
▁anity	-10.1836
yozit	-10.1836
▁ayut	-10.1838
▁sUtra	-10.1838
▁rogAn	-10.184
▁parirakz	-10.184
▁tasmA	-10.1841
▁ceti	-10.1845
rizw	-10.1846
▁gatir	-10.1849
▁Suka	-10.1851
▁brahmacary	-10.1855
▁pakzi	-10.1856
▁kzatriyAH	-10.1862
▁saMsarg	-10.1862
▁kuSa	-10.1864
Aditya	-10.1867
sAhasr	-10.1868
hfday	-10.1869
▁kArak	-10.187
prakAS	-10.1872
Buk	-10.1873
▁vEvasvat	-10.1873
gAmi	-10.1874
▁yuDizWir	-10.1877
vizRu	-10.1878
▁SAsanAt	-10.188
dri	-10.188
▁agnir	-10.1895
▁aSuBam	-10.1895
SIta	-10.1899
▁BAvena	-10.19
patra	-10.1902
▁puRqarIk	-10.1905
puNK	-10.1906
▁trIn	-10.1906
▁asmat	-10.1906
▁Agney	-10.1907
▁durAtmanaH	-10.1909
▁sarvaBUtAn	-10.1909
▁Sete	-10.1909
▁DmAt	-10.1909
▁trayo	-10.191
▁SlezmA	-10.1914
▁samavAy	-10.1914
▁dvipa	-10.1914
▁candramAH	-10.1917
▁senApati	-10.1921
▁diSa	-10.1925
▁SoPa	-10.1927
▁kuRqa	-10.1929
▁puzpAR	-10.1931
▁nAh	-10.1937
▁mftaH	-10.1944
▁Buvana	-10.1944
▁priyaM	-10.1946
▁hetunA	-10.1947
▁udara	-10.1951
▁pramuK	-10.1965
▁kaTayizy	-10.1966
▁sPu	-10.1967
▁azwA	-10.1967
BrAnta	-10.1967
▁Svet	-10.1967
▁BAradvAja	-10.1968
▁nIti	-10.1971
▁tizWet	-10.1973
sarv	-10.1974
▁darpa	-10.1974
▁SlokAH	-10.1979
▁lakzya	-10.1981
SuSrUz	-10.1984
dyuti	-10.1984
▁kzatriyARA	-10.199
maNgal	-10.1993
▁karizy	-10.1994
▁kzayaH	-10.1999
carit	-10.2009
dvez	-10.2011
asyApi	-10.2012
▁rasasya	-10.2013
▁vEdya	-10.2013
▁AjYA	-10.2014
yahaM	-10.2016
▁vitt	-10.2023
▁kfpaH	-10.2025
▁Cand	-10.2026
▁parva	-10.2027
▁rAjas	-10.2027
▁dAtA	-10.2027
▁jvalit	-10.2028
▁yadfcCayA	-10.2028
▁bilv	-10.2028
▁durAsad	-10.2028
ByaBAzata	-10.2028
▁samprApy	-10.2028
▁vaco	-10.2028
▁BAk	-10.2029
▁BIru	-10.2029
▁BikzA	-10.203
Ananda	-10.2032
▁prakzip	-10.2032
▁pUrvokt	-10.2032
▁tasmiMs	-10.2034
▁varAn	-10.2036
▁avApya	-10.2041
▁kirIwin	-10.2041
▁upapadyate	-10.2042
▁dIrGam	-10.2044
▁ratAH	-10.2045
▁izwam	-10.2053
▁sUtaputra	-10.2055
▁anftam	-10.2057
▁aYjana	-10.2063
▁Sakyate	-10.2064
▁paramAtman	-10.2068
▁nind	-10.2076
▁Uru	-10.2076
▁vAsavaH	-10.2081
▁dIptA	-10.2082
▁raktA	-10.2084
▁varA	-10.2088
Saly	-10.2091
▁Bakzy	-10.2095
▁datte	-10.2096
▁strIRA	-10.2103
tiTi	-10.2105
▁gfhRAti	-10.211
jar	-10.211
▁SASvatI	-10.2119
pratyakz	-10.2121
▁pUrvA	-10.2123
▁tantra	-10.2125
plav	-10.2126
dAyaka	-10.2138
yogaH	-10.2151
▁parAyaRam	-10.2152
▁gAlava	-10.2152
▁SacI	-10.2152
▁utsahe	-10.2152
nASan	-10.2158
▁SiKaRqin	-10.2161
▁mAtula	-10.2163
kftA	-10.2167
▁SezaH	-10.2169
▁viSrutA	-10.217
▁sOKya	-10.2173
▁divas	-10.2174
▁snAn	-10.2175
▁tav	-10.2182
▁niroD	-10.2184
▁kleS	-10.219
yatA	-10.2192
▁Sast	-10.2193
▁hitAya	-10.2196
▁guruRA	-10.2202
▁tyAgaH	-10.2206
moha	-10.2209
▁niDanam	-10.2215
▁navam	-10.2216
▁akzayam	-10.2227
▁virudDa	-10.2229
prayog	-10.2232
▁pARqavAnA	-10.2235
▁gfDr	-10.2244
sUry	-10.2247
▁puna	-10.2247
▁anug	-10.2249
▁dik	-10.2251
▁keSav	-10.2252
▁Arti	-10.2256
SArdUl	-10.2257
stena	-10.226
cakr	-10.2263
▁vAh	-10.2266
▁mUly	-10.2267
▁toyam	-10.227
sampannA	-10.2272
kzita	-10.2275
▁prAjApaty	-10.2277
▁dIkzA	-10.2277
▁anindit	-10.2277
▁anantaram	-10.2278
▁karavAR	-10.228
▁seveta	-10.2285
▁savy	-10.2285
mAly	-10.2285
▁cOr	-10.2288
▁vAcaH	-10.2298
▁AdO	-10.2299
▁paTyam	-10.2299
▁hfzw	-10.2301
▁suhfdA	-10.2308
▁DftarAzwr	-10.2312
▁granTa	-10.2312
▁vfdDaH	-10.2314
▁suDA	-10.2316
▁Baja	-10.2318
▁niyukt	-10.2318
▁Bakzya	-10.2324
▁raTinA	-10.2324
lop	-10.2326
Bihat	-10.2333
kartA	-10.2344
▁anyam	-10.2346
▁palam	-10.2353
▁sADakaH	-10.2354
▁cakzur	-10.2354
▁Apat	-10.2359
▁kubera	-10.2365
▁ISaH	-10.2367
▁smaran	-10.2367
▁vAsav	-10.2369
▁kzetram	-10.237
Brama	-10.2371
▁anDa	-10.2377
pahft	-10.2378
▁lakzmaRam	-10.2383
▁lomaSaH	-10.2387
▁BUyizW	-10.2391
▁yogAt	-10.2393
▁svADyAy	-10.2397
▁surEH	-10.24
▁yuDyamAn	-10.2403
▁bAzpa	-10.2403
sAyujya	-10.2403
▁parjany	-10.2404
▁puruzavyAGra	-10.2404
▁gahan	-10.2405
▁puruzarzaBa	-10.2406
▁kaTayAmi	-10.2406
kzIr	-10.2408
▁dAruRam	-10.2409
rudD	-10.241
▁jetu	-10.241
▁AjagAma	-10.241
▁kulIn	-10.241
AdIni	-10.241
▁nAti	-10.2413
▁niBa	-10.2421
yaTa	-10.2422
▁upadrav	-10.2423
▁saKy	-10.2426
▁prahAr	-10.2431
▁mfgAH	-10.2433
Suk	-10.245
▁aSakt	-10.2451
Amahe	-10.2458
mantra	-10.2459
▁asfjat	-10.2463
ndrA	-10.2464
▁viBakt	-10.2466
▁nimittam	-10.2473
▁tala	-10.2478
▁gIt	-10.2481
vfttiH	-10.2481
kzaye	-10.2488
ESvarya	-10.2494
sparSa	-10.2496
vihit	-10.2504
cintak	-10.2507
▁pawa	-10.251
patya	-10.2514
ABra	-10.2519
▁kftyam	-10.252
▁makar	-10.2521
▁balin	-10.2529
▁hatam	-10.253
▁upekz	-10.2531
ApyudAharantImam	-10.2531
▁vAsuki	-10.2531
▁Soza	-10.2531
▁prApsya	-10.2532
▁cintayA	-10.2532
▁meDy	-10.2532
▁grAs	-10.2532
▁ityarTaH	-10.2533
▁kaRv	-10.2536
▁puzy	-10.2537
vAk	-10.2539
mudrA	-10.254
▁ambar	-10.2542
▁taTAny	-10.2544
Bizek	-10.2544
▁rakzo	-10.2546
▁dvijottamaH	-10.2553
▁baka	-10.2556
▁samanvitA	-10.256
▁yaSca	-10.2561
▁yatrA	-10.2562
▁vimucyate	-10.2563
▁vahniH	-10.2564
▁gfDra	-10.2565
▁ESvarya	-10.257
SAstra	-10.2571
▁niScita	-10.2577
▁parvataH	-10.258
▁tapasaH	-10.2584
opamA	-10.2597
▁yajant	-10.2601
▁laG	-10.2604
▁lABa	-10.2608
▁kzipta	-10.2609
▁mAsam	-10.261
▁uddiSya	-10.2611
▁rasEH	-10.2621
▁samudAhft	-10.2624
▁vAsAMs	-10.2625
Ngiras	-10.2627
▁satI	-10.2629
nity	-10.2631
gocar	-10.2633
vasat	-10.2643
Sastr	-10.2647
ISvaram	-10.2648
ruci	-10.2648
▁rADeya	-10.265
▁Sram	-10.265
▁diSam	-10.2651
▁divasa	-10.2654
nASanaH	-10.2655
surA	-10.266
▁Sulba	-10.2661
▁paWet	-10.2661
▁ramaRIy	-10.2661
▁varAroh	-10.2661
▁vizRor	-10.2661
▁pradAtavy	-10.2661
▁ayoDyA	-10.2662
upEti	-10.2662
▁vicakzaRaH	-10.2663
▁SoDanam	-10.2664
▁narendra	-10.2664
▁DAtrI	-10.2665
▁vikray	-10.2665
▁nirdah	-10.2668
▁granTi	-10.2668
▁anyE	-10.2675
▁jAla	-10.2675
BiSca	-10.2677
▁yayuH	-10.2677
▁vAyur	-10.268
▁laya	-10.2687
▁Alayam	-10.2689
SfNga	-10.2691
▁cAny	-10.2693
▁paYcamam	-10.2694
▁AKyA	-10.2696
vfdDi	-10.2704
▁sarvajYa	-10.2705
▁SoRitam	-10.2712
▁mene	-10.2714
▁udAhftam	-10.2715
saMsparS	-10.2716
▁hayAn	-10.2722
▁maheSvar	-10.2724
▁garBe	-10.2725
▁cUrRa	-10.2727
▁saras	-10.2729
vadan	-10.2729
ottamA	-10.2731
priyaH	-10.2735
paYcakam	-10.2738
UnAm	-10.2738
▁DyAn	-10.2739
▁nazwe	-10.2741
mARaH	-10.2748
pradA	-10.2756
kaRwak	-10.276
▁pradaH	-10.2762
▁suganDi	-10.2768
AYjana	-10.2769
▁iy	-10.2774
▁piban	-10.2776
▁Akfti	-10.2778
varDanam	-10.2791
rasaM	-10.2791
▁aSvatTAmA	-10.2793
▁drazwavy	-10.2793
▁pratyaBAzata	-10.2793
▁klIb	-10.2793
▁SvaSur	-10.2793
▁liptvA	-10.2793
saMsadi	-10.2793
▁kftAYjaliH	-10.2794
▁manasvin	-10.2794
▁samIpe	-10.2794
▁cintayan	-10.2796
▁jYAtum	-10.2796
▁golaka	-10.2797
▁mahAtmane	-10.28
▁puruzottamaH	-10.2802
▁hrI	-10.2803
▁vESravaRa	-10.2803
▁vidyayA	-10.2804
▁vanaspat	-10.2804
▁nareSvara	-10.2805
▁saraH	-10.2808
▁nihant	-10.2813
Scatur	-10.2828
▁sved	-10.2832
▁brahmacaryam	-10.2834
▁vawa	-10.2835
viroD	-10.2837
▁praSaMs	-10.2842
▁SakreR	-10.2842
▁nirat	-10.2843
▁Bakz	-10.2844
▁vicitrAR	-10.2845
▁SvAsa	-10.2845
Dun	-10.2847
▁lAGava	-10.285
▁bAhya	-10.285
tyeva	-10.2858
tejasA	-10.2859
vartanta	-10.286
▁aBAvAt	-10.2861
▁viSvAmitra	-10.2863
ArD	-10.2866
▁viw	-10.287
▁upamam	-10.2871
▁suzu	-10.2871
vezw	-10.288
▁samaye	-10.2883
▁grahaRam	-10.2883
▁lohit	-10.2884
▁DAriR	-10.2884
▁aSru	-10.2886
DAriR	-10.2888
stapa	-10.2891
▁dizw	-10.2898
zyanti	-10.2899
samanvit	-10.2902
▁suyoDanaH	-10.291
▁nut	-10.2917
praBav	-10.2917
▁mUrCA	-10.2926
taRqul	-10.2926
▁pradakziR	-10.2927
▁AtmAnaH	-10.2927
Gan	-10.2927
▁yasmAdAha	-10.2928
samAyukt	-10.2928
▁pragfhya	-10.2929
▁praTamaH	-10.2929
▁siMhanAd	-10.293
mfttikA	-10.2937
▁kftsna	-10.2939
▁svasT	-10.2941
▁nagare	-10.2942
Dft	-10.2947
▁sTitiH	-10.295
▁gala	-10.2963
▁vyaTA	-10.2964
▁prAptAH	-10.2965
Arka	-10.297
izye	-10.2973
▁kzatriyasya	-10.2974
▁saMsAr	-10.2978
Eza	-10.2984
▁puwet	-10.2985
▁DarmajYa	-10.2986
triMS	-10.2988
OzaDa	-10.2988
kUp	-10.299
viDAn	-10.2997
▁ityevaM	-10.3004
vEr	-10.3005
▁tatsarva	-10.301
kAreRa	-10.3017
▁kaSyapaH	-10.3017
SravaR	-10.3019
▁vasant	-10.302
▁praBave	-10.3029
Siras	-10.3029
▁vESyaH	-10.3031
▁gaRAn	-10.3032
▁putrO	-10.3033
▁prekz	-10.3034
samapraB	-10.3037
ApnuyAt	-10.304
▁BErav	-10.304
vikAr	-10.304
▁dEvata	-10.3041
▁parABav	-10.3047
▁gamana	-10.3047
▁DAny	-10.3049
Estu	-10.3054
▁avekz	-10.3057
▁kOntey	-10.3059
▁dahyamAn	-10.3061
▁vimuYca	-10.3061
▁uttaNka	-10.3061
▁vakzyati	-10.3061
nukUl	-10.3062
▁nizPal	-10.3062
sAgar	-10.3062
▁viBAga	-10.3063
jaNG	-10.3063
▁aDigacCati	-10.3064
gacCan	-10.3064
▁durAtmanA	-10.3065
▁parAjay	-10.3067
▁manyante	-10.3073
stvayA	-10.3074
▁yutaH	-10.3078
▁pItA	-10.3079
ASana	-10.308
▁yuyuDAna	-10.3081
▁aBizeka	-10.3084
▁dEvatam	-10.3086
vinAS	-10.3089
▁kaTay	-10.3093
▁ramye	-10.3093
▁kartavyA	-10.3097
moh	-10.31
▁upavAs	-10.3101
▁patanti	-10.3103
▁buDAH	-10.3105
▁Darmaputr	-10.3108
kAya	-10.3115
mUtr	-10.3117
▁AkAra	-10.3121
carA	-10.3122
▁yO	-10.3127
▁BUtA	-10.3134
bIj	-10.3137
▁DArA	-10.314
IkftA	-10.3142
▁svacCa	-10.3142
▁meDAv	-10.3146
Bavet	-10.3152
▁smit	-10.3153
▁Agamya	-10.3153
▁harz	-10.3154
▁sahito	-10.3155
▁aSn	-10.3159
▁vats	-10.3161
▁vahan	-10.3162
virudD	-10.3168
neka	-10.3177
▁kanda	-10.3178
tmani	-10.3181
DAtu	-10.3196
▁SuDyati	-10.3198
▁kfTAH	-10.3198
▁visfjya	-10.3198
▁SArIr	-10.3199
▁vikfti	-10.3202
▁karizyasi	-10.3203
▁dAsyAmi	-10.3204
▁candana	-10.3206
▁kapAla	-10.3206
maDya	-10.3206
▁Gawa	-10.3209
▁varAh	-10.3209
▁daRqak	-10.321
▁gagana	-10.3211
▁prajAnA	-10.3211
▁SarAva	-10.3216
▁DarmajY	-10.3223
▁samaBavat	-10.3225
▁vartma	-10.3229
▁SUl	-10.323
▁saMhAra	-10.3234
ESc	-10.3235
▁kaTitA	-10.3237
yogAt	-10.3247
▁vAyunA	-10.3252
▁rakzati	-10.3254
▁maheSvara	-10.3256
▁vIta	-10.3262
▁yaSasvinI	-10.3262
▁pApAni	-10.3268
rAvaR	-10.3272
▁SatEH	-10.3274
Ikfty	-10.3285
vAsinAm	-10.3295
▁BAgaH	-10.3295
pfcCa	-10.3299
▁kASyapa	-10.3301
▁vimuK	-10.3305
kuSal	-10.331
▁prayacCa	-10.3311
▁asita	-10.3313
lavaR	-10.3314
mayI	-10.3315
▁Basm	-10.3317
▁sAhasr	-10.3319
samanvitaH	-10.3324
▁Gaw	-10.3327
▁stey	-10.3328
▁durDarza	-10.3329
▁saMSaya	-10.333
▁kAYjik	-10.3337
▁kaWin	-10.3337
▁tacCrutvA	-10.3337
▁vfRIzv	-10.3337
▁SraddaDAn	-10.3337
▁kriyamAR	-10.3337
▁ukte	-10.3337
▁kzitO	-10.3337
▁prapadye	-10.3339
▁piNgal	-10.3339
calit	-10.3339
▁prApto	-10.3341
▁Dik	-10.3341
▁nimez	-10.3343
▁SatruGna	-10.3344
▁nipatit	-10.3344
samAvizw	-10.3344
▁pratiBAt	-10.3346
▁svak	-10.3355
▁vetT	-10.3359
yaTA	-10.3366
▁udyAn	-10.3369
▁pfTivIpati	-10.3372
▁saPal	-10.3374
▁kamal	-10.3376
citt	-10.3377
▁meha	-10.3379
▁prayAnt	-10.338
nEk	-10.3381
▁janmani	-10.3385
▁sarvaBUta	-10.3386
▁mETuna	-10.3386
▁maheS	-10.3388
▁trEloky	-10.3388
pArag	-10.3389
▁caturBiH	-10.3389
gal	-10.339
▁arcana	-10.3392
▁samApt	-10.3392
▁putraka	-10.3395
▁Agaty	-10.3401
▁pIqA	-10.3406
▁nAva	-10.3409
kozW	-10.3412
▁vidDa	-10.343
▁praTit	-10.3443
▁kurvate	-10.3443
▁fzaBAH	-10.3444
puRy	-10.3444
▁dala	-10.345
DUm	-10.3452
▁aBavan	-10.3453
siMha	-10.3456
saMSay	-10.3458
▁jayati	-10.3461
▁asmE	-10.3467
▁antarA	-10.3472
▁tfpyati	-10.3478
▁yuzmAka	-10.3478
▁bfhat	-10.3478
▁kokil	-10.3478
▁sOBAgya	-10.3478
▁vyoma	-10.3478
▁nyaset	-10.3478
▁pfTag	-10.3478
▁fze	-10.3478
▁KyAti	-10.3479
▁BogAn	-10.3481
▁gamizyati	-10.3481
▁muzwi	-10.3481
▁vihIna	-10.3481
▁sPuwa	-10.3482
▁avyayaH	-10.3483
▁kAMsya	-10.3487
▁uzit	-10.349
▁pradIpt	-10.3492
▁parAkramam	-10.3493
▁SukaH	-10.3493
▁prAhur	-10.3495
▁grAhyam	-10.3495
▁nivartate	-10.3496
▁mAmak	-10.3497
caraR	-10.3503
cAreRa	-10.3505
▁tAsA	-10.3507
▁SiKi	-10.3509
▁lohAn	-10.3509
▁praTamA	-10.3511
Alayam	-10.3522
▁strIzu	-10.3525
▁vAruR	-10.3542
▁ramyA	-10.3545
sahit	-10.3548
Erapi	-10.3551
▁kaTayasv	-10.3553
badDa	-10.3567
prayojan	-10.3567
▁dviviDam	-10.3573
▁hiNgu	-10.3574
▁kAzWa	-10.3583
▁aRqa	-10.3584
▁BaktaH	-10.3586
▁parEH	-10.3587
parAD	-10.3591
trayaM	-10.3593
drAv	-10.3593
AdiBiH	-10.3594
▁saMSray	-10.3595
kUle	-10.3597
▁BAzit	-10.3605
▁SakyA	-10.361
▁varma	-10.3616
▁loma	-10.3617
▁Bavizya	-10.3618
ADyakz	-10.362
▁azwAvakra	-10.3621
jagmatuH	-10.3621
▁citrasena	-10.3622
▁SuBEH	-10.3622
▁mahAmati	-10.3622
▁gurv	-10.3623
▁mahIpAla	-10.3624
▁rogAH	-10.3625
▁nEza	-10.3625
▁udvaha	-10.3626
▁atikramy	-10.3626
pakv	-10.3627
▁bahuBir	-10.3631
tuzw	-10.3634
▁vahat	-10.3634
▁aDikaH	-10.3634
▁Bid	-10.3635
▁aDyAyaH	-10.3637
▁BAnu	-10.3638
▁avApt	-10.3639
lp	-10.364
ocyate	-10.3641
▁nidarSanam	-10.3641
▁dehinaH	-10.3642
▁kupya	-10.3645
▁Danur	-10.3651
▁kaTayati	-10.3652
BAvena	-10.3653
▁rAhu	-10.3654
▁yaTASakti	-10.3661
niDiH	-10.3663
▁raTena	-10.3663
Etat	-10.3667
▁Ajya	-10.3668
▁plav	-10.367
mAhAtmy	-10.3688
▁pipAsA	-10.3689
▁viSvAmitraH	-10.3689
▁vyUha	-10.3696
yez	-10.37
▁pARinA	-10.3702
▁anek	-10.3708
▁kANkza	-10.3709
▁prIto	-10.3712
Avarta	-10.3714
▁arTAH	-10.3715
▁tizWant	-10.3724
AgninA	-10.3731
▁vfkodaraH	-10.3733
dakz	-10.3744
ocana	-10.3744
▁samAkul	-10.375
▁gagan	-10.3752
▁paScima	-10.3758
noti	-10.3758
▁sTitvA	-10.3759
yudD	-10.3763
▁locana	-10.3763
▁jAnan	-10.3766
▁purastAt	-10.3766
▁daridr	-10.3766
▁agamat	-10.3766
▁avoca	-10.3766
▁patrARi	-10.3766
▁pratIkz	-10.3766
▁uzwr	-10.3766
cCinn	-10.3768
▁pratijYAt	-10.3771
▁Bezaj	-10.3774
▁jIvitum	-10.3774
mAMsa	-10.3775
▁cIra	-10.3776
Ucu	-10.379
▁tasyEva	-10.3792
▁Daram	-10.3792
▁SAstrAR	-10.3799
tAl	-10.3799
▁manuzyARAm	-10.38
▁fRa	-10.3806
▁AtmakaH	-10.3818
▁kapila	-10.382
▁mftyur	-10.3827
Dvaj	-10.3838
▁vedavid	-10.3848
▁aSuB	-10.3849
▁sarvarog	-10.3853
▁ABam	-10.3854
▁rakzitA	-10.3854
trEva	-10.3854
▁SastrAR	-10.3862
yAtma	-10.3868
▁paRqitaH	-10.3872
▁vAsudevasya	-10.3874
▁ISAnam	-10.3875
▁kzaRena	-10.3883
▁amitr	-10.3884
waka	-10.3887
samanvitam	-10.3889
▁brUyA	-10.3889
▁yuyuD	-10.3892
▁arTI	-10.3892
kfzR	-10.3894
▁mandara	-10.3905
▁anusmaran	-10.3913
▁drazwA	-10.3913
▁parANmuK	-10.3913
▁saMramB	-10.3913
▁SuSuB	-10.3913
▁rAjovAca	-10.3913
▁yuDA	-10.3913
▁nyasta	-10.3915
▁dIyatA	-10.3915
▁balavattar	-10.3915
▁praTame	-10.3916
▁tatkzaR	-10.3917
▁prARAyAm	-10.3919
▁samapadyata	-10.3919
nAyaka	-10.392
▁buDyate	-10.3928
vihIn	-10.393
▁upetA	-10.393
▁prApnuvanti	-10.3933
▁trivft	-10.3934
▁vAram	-10.3938
▁fkza	-10.394
sUtr	-10.3943
patnI	-10.3946
▁candramas	-10.395
▁vEvasvata	-10.3953
dvayam	-10.3958
miSr	-10.3958
DyAyaH	-10.3965
▁karizye	-10.3966
▁anubanD	-10.3968
▁tapasvinaH	-10.3968
▁guREr	-10.3969
▁zazWe	-10.3969
▁praharaR	-10.3972
sattva	-10.3981
▁kAntA	-10.3984
▁cokt	-10.3987
▁anuj	-10.3988
▁brAhmaRAn	-10.3989
▁pakt	-10.399
▁parAn	-10.4003
▁lakzmaRena	-10.4003
ADam	-10.4008
▁yamO	-10.4009
▁rAkzasAnAm	-10.4018
Sakt	-10.402
▁Denu	-10.4028
▁kevala	-10.403
▁prAs	-10.403
▁pradad	-10.4032
▁tuBya	-10.4044
sEny	-10.4047
kurute	-10.4047
▁evamukt	-10.405
pUrvak	-10.405
vicakzaR	-10.406
▁vEra	-10.406
ADip	-10.4062
▁SradDayA	-10.4062
▁pfcCAm	-10.4062
▁tryambak	-10.4062
▁uccAvac	-10.4062
▁jiGAMs	-10.4062
▁Bizaj	-10.4062
▁dvAByA	-10.4062
▁hEm	-10.4062
▁gajapuwe	-10.4064
▁plavag	-10.4064
▁vartante	-10.4065
▁DAma	-10.4066
▁cintit	-10.4068
AcAra	-10.407
▁bahuviDa	-10.4073
▁prayatn	-10.4075
▁vaktu	-10.4075
▁vikramam	-10.4075
▁pratigfhR	-10.4075
▁aBigamya	-10.4076
▁SataSo	-10.4079
▁sahasrAkz	-10.4079
vartanam	-10.408
▁pOruzam	-10.4085
▁SUlin	-10.4087
▁Ikz	-10.409
gotr	-10.409
▁prARinAm	-10.4095
▁mriy	-10.41
eSAn	-10.4103
▁Adizu	-10.4111
viduz	-10.4112
smAt	-10.4113
▁pratyay	-10.4119
▁pUjitam	-10.4123
dAha	-10.4129
▁kozWa	-10.4133
▁liNgAni	-10.4148
▁divam	-10.4158
▁nAny	-10.4163
▁dAsy	-10.4165
▁eBi	-10.4172
▁SizwA	-10.4182
▁indriyARAm	-10.4182
▁ann	-10.4191
gOrav	-10.4195
vfzwi	-10.4204
maraRa	-10.421
mitatejas	-10.421
▁icCan	-10.4212
▁Danvantari	-10.4214
▁dASArh	-10.4214
▁krIqA	-10.4214
▁mAciram	-10.4214
▁mAtuluNga	-10.4214
ranDr	-10.4215
▁grasate	-10.4215
varDanaH	-10.4216
▁dvijaSrezWa	-10.4217
▁pfzWe	-10.4217
▁haviH	-10.4217
▁prApti	-10.4221
▁prayAga	-10.4222
Bar	-10.4222
▁pUjyate	-10.4223
stotr	-10.4224
▁dravEH	-10.4224
▁dAsa	-10.4226
▁pAzARa	-10.4228
▁varuRasya	-10.423
vagAh	-10.4231
Slez	-10.4232
▁sten	-10.4243
▁pARqura	-10.4244
▁BIzmeR	-10.4245
▁icCa	-10.4251
vivek	-10.4253
▁nivAt	-10.4254
▁muRq	-10.4256
▁niveS	-10.4257
▁gantavya	-10.4272
▁yajet	-10.4283
SADi	-10.4284
▁caraRa	-10.4285
hanyate	-10.4286
▁Syen	-10.4294
▁Amaya	-10.4295
▁yatna	-10.4297
▁aBiD	-10.4299
▁zazW	-10.43
▁gfhRIyAt	-10.4302
vacaH	-10.4303
▁vivft	-10.4306
arEH	-10.4308
▁viSvarUp	-10.4311
▁SrAdD	-10.4312
▁Goza	-10.4312
▁Palgun	-10.4316
▁Darmy	-10.4319
▁kaca	-10.4319
candan	-10.4322
haret	-10.4325
pAS	-10.4328
tuly	-10.4334
▁ahit	-10.4344
▁varjitaH	-10.4346
ratna	-10.4352
pAzAR	-10.4354
▁parAyaRA	-10.436
▁mohAt	-10.4362
▁mUrK	-10.4367
▁virUpAkza	-10.4367
▁vimfS	-10.4368
▁kaPavAta	-10.4369
spand	-10.4377
▁narARAm	-10.4378
▁turag	-10.4379
▁ISvarAH	-10.4386
ruc	-10.4389
▁aByAsa	-10.4391
▁aNgAra	-10.4392
▁vftam	-10.4396
▁vipulA	-10.4397
▁upasTitam	-10.4399
▁brahmaloka	-10.4416
yaham	-10.4419
▁nASanaH	-10.4422
▁hasan	-10.4433
tatpar	-10.4435
AdInA	-10.4438
▁suparRa	-10.4439
yoD	-10.4445
AdyEr	-10.4445
vaSaM	-10.4449
▁Agamana	-10.445
▁pfT	-10.4453
raYjana	-10.4456
▁nindit	-10.4461
▁paYcaDA	-10.4464
▁tac	-10.4466
SirA	-10.4466
▁caranti	-10.4469
▁Srotra	-10.4475
▁Asur	-10.4479
▁tizW	-10.4482
mAlA	-10.4491
kzAra	-10.4493
▁kAkutsT	-10.4495
puraskft	-10.4499
jagAma	-10.4507
▁mahAdevo	-10.4508
▁pitfpEtAmah	-10.4524
AnfSaMsy	-10.4524
▁baBO	-10.4524
▁biBrat	-10.4524
▁jaWar	-10.4524
▁nipuR	-10.4524
▁vESvAnar	-10.4524
▁sIdati	-10.4524
▁paYcASat	-10.4524
▁ketu	-10.4524
stIkzR	-10.4524
▁sOBadra	-10.4524
▁tisra	-10.4524
▁aBiprAy	-10.4525
▁sarvaBUtezu	-10.4525
▁hemn	-10.4525
▁triMSat	-10.4525
▁manyamAn	-10.4525
▁sutAn	-10.4526
▁BuvaH	-10.4526
▁yaTAkAmam	-10.4526
▁kfpaRa	-10.4526
▁yaTokta	-10.4527
▁apahA	-10.4528
▁garIy	-10.4531
▁ukto	-10.4536
▁varjy	-10.4539
▁asam	-10.454
▁yojanAnA	-10.454
mArut	-10.4541
tsu	-10.4544
▁cikitsA	-10.4546
▁tyajat	-10.4547
pravftt	-10.4554
▁sampadyat	-10.4554
▁lOkik	-10.456
▁kftaGn	-10.4561
▁majja	-10.4567
▁hiraRy	-10.4575
▁avayav	-10.458
▁tAvak	-10.4584
▁Bagna	-10.4594
▁Sarv	-10.4597
▁anujYA	-10.4602
▁paTya	-10.4606
▁jitendriyaH	-10.4612
gnO	-10.4614
BArgav	-10.4621
dAh	-10.4626
SarIr	-10.4627
▁vErAgya	-10.464
sTUl	-10.4643
▁pradAsyAm	-10.4651
▁etasminn	-10.4654
▁uddizw	-10.4667
ASrame	-10.4667
▁DarmAn	-10.4669
Buvan	-10.4672
▁Dfzwadyumn	-10.4674
▁SfRvant	-10.4682
▁udAhftaH	-10.4682
▁vyapohat	-10.4682
apaSyAma	-10.4682
▁prasupt	-10.4682
▁SAmyati	-10.4683
▁kzema	-10.4683
otpatti	-10.4683
▁naravyAGra	-10.4683
▁velA	-10.4683
▁puRqarIkAkza	-10.4684
▁niveSanam	-10.4686
▁indu	-10.4687
▁stuti	-10.4688
parigrah	-10.4688
▁yOvane	-10.4691
▁viduzA	-10.4693
▁sakAS	-10.4694
Ambar	-10.4695
▁gamyate	-10.4698
▁aDikAr	-10.4705
EstaTA	-10.4708
▁prakASate	-10.471
darp	-10.4717
▁vyasana	-10.4718
▁nindA	-10.4726
▁praBUta	-10.4736
ByaDik	-10.4754
▁mandA	-10.4758
▁aBimAn	-10.4762
▁vacas	-10.4763
▁anurakt	-10.4768
▁visfja	-10.4777
▁grahaRa	-10.4778
ArTI	-10.4778
▁vIkzya	-10.4779
▁syAn	-10.478
Antik	-10.4785
nurUp	-10.4785
yamAne	-10.4786
▁anayA	-10.4788
▁cAnu	-10.4789
sneh	-10.4807
▁Ceda	-10.4808
▁pinAkin	-10.481
▁matt	-10.4812
▁upakAr	-10.4813
▁tapasv	-10.4817
▁carant	-10.4819
avat	-10.4822
▁brAhmaRAnA	-10.4824
▁tApa	-10.4828
vraR	-10.483
▁sakalA	-10.4835
▁avara	-10.4835
skanD	-10.4839
▁SlakzRa	-10.4839
Atmane	-10.4841
▁vasUnA	-10.4841
▁SlAG	-10.4843
▁itTam	-10.4844
▁leKya	-10.4844
▁paSavaH	-10.4844
▁ftvij	-10.4844
▁kaluz	-10.4844
▁naSyanti	-10.4844
▁nArAc	-10.4844
▁kumud	-10.4844
▁vfzaDvaja	-10.4845
jAti	-10.4845
▁guda	-10.4847
▁hAni	-10.4848
▁niSitE	-10.4849
izyasi	-10.4849
tritaya	-10.4853
▁nayana	-10.4854
▁kurunandana	-10.4855
▁nityadA	-10.4856
vartante	-10.4857
▁asurARA	-10.4863
▁hfzy	-10.4866
▁viSvAtmA	-10.4868
patay	-10.4876
papann	-10.4879
▁puMsAm	-10.4887
▁kUwa	-10.4888
▁kzatraDarm	-10.49
▁atiTi	-10.4905
▁bravI	-10.4912
▁vidyAd	-10.4916
▁SAk	-10.4921
Dvaja	-10.4926
▁camU	-10.4927
viBUzaR	-10.494
vadat	-10.4941
asyopa	-10.4943
▁kfzi	-10.4948
BIr	-10.4957
Bojy	-10.4962
Adizu	-10.4968
jvara	-10.4975
vaNg	-10.498
nyonya	-10.498
▁Apta	-10.4984
stav	-10.4987
▁DarmAt	-10.4988
neha	-10.4988
Agn	-10.4994
Bihit	-10.4996
▁uvAc	-10.4998
viSudD	-10.5004
▁DarmizW	-10.5008
▁BfSa	-10.5008
▁devadAnava	-10.5008
▁prayojy	-10.5008
▁balIyasA	-10.5008
▁gfhRI	-10.5008
▁mAheSvar	-10.5008
▁vadet	-10.5008
▁tridiv	-10.5008
▁niScitya	-10.5008
▁nivizw	-10.5008
▁vidvAMs	-10.5009
▁sADUn	-10.5011
▁prAsAda	-10.5011
▁pAnIya	-10.5013
▁cetasaH	-10.5015
▁astam	-10.5025
nfpa	-10.5026
pallav	-10.5029
▁surARAm	-10.5033
AhuH	-10.5036
▁vAyas	-10.5046
▁aNgula	-10.5056
▁BaktA	-10.5068
▁upavAsa	-10.5072
kArakam	-10.5075
▁labDA	-10.5077
▁miSra	-10.5083
▁gfhAn	-10.5084
Dvast	-10.5089
▁vavarz	-10.5091
ucy	-10.5092
▁svasTa	-10.5097
▁nArh	-10.5117
tArakam	-10.5118
▁BItA	-10.5123
▁antarikza	-10.5125
tattv	-10.5126
avrataH	-10.5132
▁janeSvara	-10.5138
AruR	-10.514
▁paScim	-10.5146
▁SmaSAna	-10.5148
GAtin	-10.5151
▁bahula	-10.5152
▁Srotr	-10.5159
▁vanezu	-10.516
▁naBas	-10.516
▁mfgayA	-10.5162
Amaya	-10.5163
▁patati	-10.5169
▁Ayas	-10.5173
▁agnizwoma	-10.5174
▁krOYc	-10.5174
▁sPawik	-10.5174
▁caturTe	-10.5175
▁durmate	-10.5175
▁asaMSayam	-10.5175
▁Adatte	-10.5175
▁eziR	-10.5175
▁tarasA	-10.5176
▁vavr	-10.5177
DyApan	-10.5177
▁bila	-10.5177
▁pArSv	-10.5178
BraMS	-10.5178
▁diti	-10.5178
sapta	-10.5185
▁vAriRA	-10.5187
tEla	-10.5189
kanyA	-10.5191
▁Bukta	-10.5192
▁upaBog	-10.5193
▁dadyA	-10.5193
▁mArjAra	-10.5193
▁suvarR	-10.5195
▁pibanti	-10.5195
ntarhit	-10.5196
dravy	-10.5197
▁kasmin	-10.5197
▁pratiSrut	-10.5201
▁nandI	-10.5206
▁saritA	-10.5207
▁gfhyate	-10.5209
▁pinAk	-10.5209
▁uktastu	-10.521
▁vanavAs	-10.521
▁svarUpa	-10.5212
▁visfzw	-10.5219
▁Cidra	-10.5221
▁praSna	-10.5222
▁udAna	-10.5248
▁gOtam	-10.5254
▁SoRit	-10.5255
▁upalabD	-10.5255
devatA	-10.5257
▁paYcame	-10.5261
▁nAmA	-10.5273
▁madana	-10.5278
▁etAm	-10.5283
▁vyApya	-10.5297
▁sarvAsu	-10.5297
▁muRqa	-10.5312
▁patana	-10.5318
tEl	-10.532
▁vAtapitt	-10.5321
▁asurAH	-10.5325
▁anyad	-10.5334
ArtA	-10.5337
SAnt	-10.534
▁vihitA	-10.5341
▁SuSrAva	-10.5344
▁jagannATa	-10.5344
▁jajYire	-10.5344
▁nipapAta	-10.5344
▁vapuzA	-10.5344
▁SilAjatu	-10.5344
▁muhur	-10.5344
▁jawil	-10.5344
▁SArNga	-10.5344
▁avyagr	-10.5344
▁vEnatey	-10.5344
▁sAmarTy	-10.5344
▁syandan	-10.5344
▁Damet	-10.5344
▁caRqAl	-10.5344
vatizWate	-10.5345
▁jyotizA	-10.5345
▁trAsa	-10.5346
▁yozitaH	-10.5347
Ambara	-10.5347
azwottara	-10.5348
▁svAmI	-10.5349
gupt	-10.5351
▁prakfteH	-10.5352
DvaMs	-10.5353
Slezma	-10.5353
▁vAdinaH	-10.5353
▁srotasA	-10.5356
▁anucar	-10.5361
▁malin	-10.5361
▁vihAr	-10.5362
mandir	-10.5364
▁suyoDan	-10.5364
▁vijity	-10.5364
sADu	-10.5365
▁tanme	-10.5366
▁AsId	-10.5368
▁garhit	-10.5369
catuzway	-10.5372
SiKar	-10.5374
▁apramey	-10.5381
BARq	-10.5384
▁icCet	-10.5384
fzi	-10.5394
▁ajina	-10.5394
▁Sarva	-10.5401
▁mita	-10.5402
▁pUrveRa	-10.5405
galit	-10.5409
▁nakzatrAR	-10.5411
hAriR	-10.5413
▁maru	-10.5415
pitf	-10.5422
▁BakzaRa	-10.5426
▁naraka	-10.543
▁kavi	-10.5439
sUkt	-10.5447
▁virah	-10.5452
▁SrIdev	-10.5459
Sceti	-10.5462
arcan	-10.547
▁kroDAt	-10.547
▁niDana	-10.5474
▁snigDA	-10.5475
▁pareRa	-10.5476
daSa	-10.5476
▁pey	-10.5476
ruj	-10.5479
▁rAzwre	-10.5482
ulk	-10.5483
AMstaTA	-10.5487
taTA	-10.5494
▁vAnarARA	-10.5495
▁asmAka	-10.55
▁puru	-10.5505
▁sarvatIrT	-10.5509
▁icCayA	-10.5514
Scitr	-10.5514
▁kaTyatAm	-10.5516
▁mfzA	-10.5516
▁pArzataH	-10.5516
▁prAhiRo	-10.5516
▁vijAnAti	-10.5516
▁bodDavy	-10.5516
▁svAyamBuv	-10.5516
▁SrISiva	-10.5516
▁inDan	-10.5516
▁mArIca	-10.5516
pulin	-10.5516
▁Sreyo	-10.5516
▁kurUn	-10.5516
▁kadalI	-10.5516
▁hantavy	-10.5517
▁prapannA	-10.5517
▁sTavir	-10.5517
▁varjay	-10.5517
▁kftrima	-10.5517
▁loBAt	-10.5517
▁zoqaSIm	-10.5517
▁dvijAtInA	-10.5517
pravartak	-10.5519
▁pawu	-10.552
maRqap	-10.5521
▁prAviSa	-10.5522
▁sahasrAkza	-10.5523
▁yajamAna	-10.5523
manuzy	-10.5525
▁devatAnAm	-10.5533
vallaBa	-10.5535
▁devarzi	-10.5539
▁anuvartate	-10.5539
▁yuYj	-10.5543
prakfti	-10.5546
▁viBAzA	-10.5548
▁BUmipa	-10.5551
▁niDAya	-10.5555
▁takzaka	-10.5558
▁vikarRa	-10.556
cAmar	-10.5563
▁tikt	-10.5565
Buv	-10.559
▁SivA	-10.5592
gnayaH	-10.5593
▁viraj	-10.5594
▁sureSvara	-10.5598
parAyaRA	-10.5598
▁upayog	-10.5602
SUny	-10.5603
▁viparyaya	-10.5604
▁prakftyA	-10.5606
dIpa	-10.5607
▁vAlin	-10.5611
▁nandan	-10.562
kArI	-10.5623
Scandra	-10.5627
▁copa	-10.564
cCar	-10.564
vidit	-10.5641
▁BuYjAn	-10.5642
▁amal	-10.5647
rudr	-10.5648
▁cAnya	-10.5655
pratihat	-10.5661
jambIr	-10.5664
▁BasmanA	-10.5686
ruRa	-10.5687
sTAvarajaNgam	-10.5692
▁SfRoti	-10.5692
▁aBidudr	-10.5692
▁lipyate	-10.5692
▁nyagroD	-10.5692
▁Sulva	-10.5692
▁durmatiH	-10.5692
▁upAgamat	-10.5692
▁tArkzya	-10.5692
▁ajAyata	-10.5692
▁mAgaD	-10.5692
▁prAdAt	-10.5692
▁BAsvar	-10.5692
▁budDvA	-10.5693
▁uttAna	-10.5693
▁SoDan	-10.5696
▁janADipa	-10.5696
▁ikzu	-10.5697
▁sAntv	-10.5698
DUp	-10.5698
praBfti	-10.5704
▁AKyAnam	-10.5704
▁nirAhAr	-10.5706
▁praBAt	-10.5708
▁band	-10.5708
▁upajAyate	-10.5708
▁prayuYjIta	-10.5708
▁kAryezu	-10.571
Arti	-10.5715
▁SiKA	-10.5717
▁AryA	-10.5718
▁udyamy	-10.5719
▁aBiDIyate	-10.5725
▁samudBav	-10.573
▁vyavasAy	-10.573
▁miTuna	-10.5731
▁bfhad	-10.5732
▁SlokO	-10.574
▁paTy	-10.5745
▁varAha	-10.5745
kazAy	-10.5745
AsAM	-10.5746
▁svAgata	-10.5755
▁rudreR	-10.5759
▁vraj	-10.5764
▁vyApta	-10.5765
▁praSam	-10.5768
▁avatAr	-10.5776
▁Cinn	-10.5784
▁cAha	-10.5804
▁marutta	-10.5817
▁sahasreR	-10.5822
▁Asa	-10.5827
nala	-10.5828
▁maDunA	-10.5834
▁citraka	-10.5834
▁fkz	-10.5842
▁grAha	-10.5854
▁vitat	-10.5857
▁Bavizyat	-10.5865
▁paNkaj	-10.587
▁SatakratuH	-10.587
▁etacCrutvA	-10.587
▁reKA	-10.587
▁mahArhAR	-10.587
▁sADavaH	-10.587
▁arGya	-10.5871
▁timir	-10.5871
▁aNgirAH	-10.5871
▁vyAna	-10.5871
▁pratyapadya	-10.5872
▁kANkzit	-10.5873
▁sTARu	-10.5873
▁sAkziRaH	-10.5873
▁DErya	-10.5874
tIva	-10.5876
▁pravadant	-10.5877
▁nigfhya	-10.5878
▁sItAyA	-10.5879
▁dikzu	-10.5879
▁vany	-10.5879
kAy	-10.5881
sADak	-10.5884
▁SaraRya	-10.5887
rakzasAm	-10.5887
▁pravartante	-10.589
▁amarz	-10.5893
▁nakzatr	-10.5896
▁aDika	-10.5897
karRa	-10.5899
uddizw	-10.5903
▁bruvant	-10.5906
▁kukz	-10.5912
▁BARqa	-10.5916
▁samAsa	-10.5922
▁izwvA	-10.5924
▁stana	-10.5932
sutaH	-10.5939
▁Bajet	-10.594
▁vijYAta	-10.5944
▁raTin	-10.5949
▁tAva	-10.5956
▁BrAnt	-10.5956
▁kAvy	-10.5958
vapu	-10.597
▁satkfta	-10.597
Amla	-10.5972
prIt	-10.5973
syeti	-10.5987
▁tAraka	-10.5989
▁vikalpa	-10.599
▁idAnI	-10.5994
▁gavy	-10.6017
AvaraR	-10.6023
▁pitr	-10.6028
▁samfdDa	-10.6032
▁vfk	-10.6036
pAtak	-10.6037
▁biBarti	-10.6052
▁grIzme	-10.6052
▁harItakI	-10.6052
▁lIlayA	-10.6052
▁pracCanna	-10.6052
▁bahv	-10.6052
▁imAM	-10.6053
▁vakzyAmaH	-10.6053
▁drAkzA	-10.6054
▁rakzasaH	-10.6054
ISAna	-10.6055
karmasu	-10.6056
▁aDvAna	-10.6059
▁acintya	-10.606
▁nirAmay	-10.6061
stasyA	-10.6063
▁aByantar	-10.6065
brAhmaR	-10.6068
▁pfcCas	-10.607
bindu	-10.6071
▁AjYayA	-10.6071
▁kfz	-10.6083
praDAn	-10.6091
▁upaspfS	-10.6096
▁uditam	-10.6097
▁saMyam	-10.6099
rhati	-10.6099
harza	-10.6106
▁rudan	-10.6107
▁nirBay	-10.6109
▁Sarma	-10.6115
▁anujYAta	-10.6115
▁nAgara	-10.6116
durg	-10.6123
▁yAcit	-10.6126
BUmi	-10.6128
▁varRAnAm	-10.6137
▁prItA	-10.6146
▁hanizyAm	-10.6148
▁gotra	-10.615
▁Bikzu	-10.6157
lAGav	-10.6158
praBAv	-10.6159
vayav	-10.6164
▁karmaR	-10.6165
▁tiktA	-10.6191
▁kurURA	-10.6199
ntarikz	-10.6207
yuYjIta	-10.6221
▁DAtUn	-10.6226
▁paratr	-10.623
mukuw	-10.6237
▁BUriSravA	-10.6237
▁BagIraT	-10.6237
▁cihn	-10.6237
▁pravekzy	-10.6237
vfnd	-10.6237
▁jANgal	-10.6238
▁pibat	-10.6238
▁dEvatEH	-10.6238
▁aBimanyu	-10.6238
▁vivikt	-10.6238
pratIkAS	-10.6238
▁hiraRmay	-10.6238
▁prokto	-10.6238
▁Atape	-10.6239
▁aSvinO	-10.6239
▁aBayam	-10.624
▁sarzap	-10.624
▁sukumAr	-10.6241
▁Arjavam	-10.6241
▁dAsyati	-10.6243
▁vaktA	-10.6244
▁Bidyate	-10.6244
AlAp	-10.6245
▁Kalve	-10.6245
▁nEt	-10.6246
gadgada	-10.6249
▁mAlya	-10.625
▁pUjayed	-10.6254
▁agnihotr	-10.6255
▁tantre	-10.6255
▁SravaRa	-10.6267
▁tApya	-10.6268
▁aGor	-10.6269
▁anumAn	-10.6273
▁azwama	-10.6279
▁SaraB	-10.6282
▁laBe	-10.6285
▁DArayat	-10.6285
▁kavy	-10.6286
▁aDyAy	-10.6288
▁sAtmya	-10.6288
▁Danvin	-10.6289
▁svAmi	-10.629
nvay	-10.6291
▁asmAt	-10.6299
▁tarpaRa	-10.63
▁pAh	-10.6312
▁vAdI	-10.6316
svarUp	-10.632
vihval	-10.6324
▁aty	-10.6329
▁Bavantu	-10.633
nirdizw	-10.6332
viparyay	-10.6335
AtmikA	-10.6354
▁rudrAy	-10.6355
▁cEv	-10.6356
▁mAnada	-10.6359
▁pitry	-10.6359
▁utpal	-10.636
▁anugata	-10.6361
enokt	-10.6367
opAya	-10.6374
▁varzati	-10.6387
▁haray	-10.6405
DikAr	-10.6409
arjan	-10.6416
▁prasravaR	-10.6426
▁dunduB	-10.6426
▁fzIn	-10.6426
▁hiraRyakaSipu	-10.6426
▁napuMsak	-10.6426
▁pradyumn	-10.6426
▁spazwam	-10.6426
▁vizRave	-10.6426
▁mArdav	-10.6426
▁virocana	-10.6426
▁SatravaH	-10.6426
▁gamBIra	-10.6426
▁sAkzI	-10.6427
DidEvatam	-10.6428
▁vinDya	-10.6429
▁saMsTAna	-10.643
▁imO	-10.643
▁BOm	-10.6432
▁yatamAn	-10.6435
Akzo	-10.6437
IkaraRam	-10.6437
▁ADAra	-10.6446
▁narADipA	-10.645
oraga	-10.6451
Gft	-10.6451
▁nIca	-10.6454
▁smftvA	-10.6461
▁asADy	-10.6462
kurvan	-10.6466
▁Ayur	-10.6472
▁kASyap	-10.6475
▁viSvakarmA	-10.6479
▁yaTAgatam	-10.6479
mudg	-10.6486
▁samit	-10.6488
▁varzasahasr	-10.6488
nyAy	-10.6491
Palaprada	-10.6498
tikta	-10.6499
saMhAr	-10.6515
banDu	-10.6518
▁nandi	-10.6518
▁Danad	-10.6528
▁nimn	-10.6541
▁kfty	-10.6542
▁vaDU	-10.6543
ecCA	-10.6543
▁gOtama	-10.6543
▁Bajat	-10.6551
▁yazw	-10.6552
▁sadyo	-10.6555
BayAd	-10.6561
numat	-10.6573
srot	-10.6576
▁pOrav	-10.6577
▁hrasv	-10.6577
arzaBa	-10.6581
▁mady	-10.6586
▁fzIRA	-10.6587
▁kAvya	-10.66
▁tapan	-10.6601
BakzaR	-10.6603
Akfti	-10.6608
Soz	-10.6611
citta	-10.6614
▁jImUt	-10.6618
▁paryupAsat	-10.6618
▁veditavy	-10.6618
▁mardayitvA	-10.6618
▁vinyaset	-10.6618
▁vijAnatA	-10.6618
▁utkaw	-10.6618
▁viprarze	-10.6618
▁SamBoH	-10.6618
▁snuzA	-10.6618
▁SOrya	-10.6618
▁sItayA	-10.6618
▁prasakt	-10.6618
▁darB	-10.6619
▁tAlu	-10.6619
▁upetaH	-10.6619
▁gamizyasi	-10.6619
▁jaGnu	-10.6619
▁etan	-10.6619
▁mardit	-10.6619
▁apfcCat	-10.662
▁lokapitAmaha	-10.662
▁stoka	-10.6621
▁parvaRi	-10.6621
▁bAhU	-10.6621
▁parimAR	-10.6622
▁karuRa	-10.6625
▁vyAkul	-10.6627
▁raktapitta	-10.6627
▁prAptavAn	-10.6628
▁sTAvarAR	-10.6628
▁zazWa	-10.6629
▁parvasu	-10.6629
▁ucita	-10.663
▁vamana	-10.6632
▁nAnyaTA	-10.6634
▁vAsinaH	-10.6639
▁sevate	-10.6639
gOr	-10.6641
▁indrajit	-10.6646
▁viniScaya	-10.6646
▁DOt	-10.6648
jYey	-10.6648
indriy	-10.6652
▁bahUnAm	-10.6653
▁akasmA	-10.6655
▁jAnanti	-10.6656
▁prasava	-10.6663
▁vfkodar	-10.6663
▁ropaRa	-10.6664
▁yAjana	-10.6668
▁BEkza	-10.667
IkftaH	-10.667
▁BAvitA	-10.6671
▁sudarSana	-10.6672
valay	-10.6673
▁vasanta	-10.6675
▁Gnant	-10.6678
▁samprati	-10.6685
▁pratijYAy	-10.6694
ezyati	-10.6698
naKa	-10.6711
▁brAhmaReBy	-10.6721
▁icCe	-10.6733
▁bahuviDA	-10.6734
▁nirAS	-10.6734
vande	-10.6734
▁pit	-10.6737
▁hyez	-10.6753
▁vadAm	-10.6767
vilAs	-10.6774
▁nirgat	-10.6778
mavApnuy	-10.6784
▁svedana	-10.6786
SoP	-10.6792
▁nIc	-10.6794
SOca	-10.6796
▁gaNgAyA	-10.6805
▁anvay	-10.6808
▁kzantum	-10.6814
▁siDyanti	-10.6814
▁ulbaR	-10.6814
▁vArARasyA	-10.6814
▁viDIyatAm	-10.6814
▁SreyAn	-10.6814
▁devAsure	-10.6814
▁aSaky	-10.6814
▁hetavaH	-10.6814
▁prasahya	-10.6814
▁gurO	-10.6814
▁tvaramAR	-10.6815
tyAjy	-10.6816
▁SArad	-10.6816
bimb	-10.6816
▁mardayed	-10.6816
▁saMhitA	-10.6817
▁nirRay	-10.682
▁japtvA	-10.6821
▁upalaByate	-10.6822
▁Baratasattama	-10.6823
▁dfzwavAn	-10.6827
▁parityajet	-10.6833
▁udAra	-10.6836
▁gATA	-10.6841
▁praRay	-10.6846
kzetra	-10.6846
▁jAgar	-10.6853
▁pfTivIpate	-10.6856
▁pAdayoH	-10.686
panIya	-10.6863
▁tatrApi	-10.6866
SalAk	-10.6879
nASinI	-10.6888
KAd	-10.6889
praSaman	-10.6912
▁tIrTAnAm	-10.6918
laNGan	-10.6937
▁nirmitA	-10.6939
bak	-10.6947
▁BartAra	-10.6948
gIt	-10.6952
▁hftA	-10.6958
▁ityet	-10.696
▁vyavasAya	-10.6971
gfhy	-10.6973
rAjya	-10.6982
patny	-10.6994
▁viparyaye	-10.701
▁mOktika	-10.7014
nirdagD	-10.7014
pedire	-10.7014
▁kzetre	-10.7014
▁rAjYe	-10.7014
▁Bavitavy	-10.7014
▁cyavan	-10.7014
▁rAjarziH	-10.7015
pIqan	-10.7015
pasmAr	-10.7015
smABir	-10.7015
dvED	-10.7016
kzAlan	-10.7016
▁dvizatA	-10.7016
▁menire	-10.7016
▁nAhuza	-10.7017
▁baBUv	-10.7017
▁dvijasattamA	-10.7018
▁praviSant	-10.7018
▁upacAr	-10.7019
▁pUjyamAn	-10.702
▁BavadBiH	-10.702
Byuday	-10.7021
▁viSvakarmaR	-10.7021
purog	-10.7022
▁Saravarz	-10.7023
▁amlena	-10.7023
▁vyatIt	-10.7023
▁pAyas	-10.7023
▁bAlak	-10.7024
▁bADate	-10.7024
▁gardaB	-10.7026
▁mAnDAt	-10.7027
▁cintayet	-10.7028
BIt	-10.7031
▁prApnuyAt	-10.7032
▁jIved	-10.7032
▁sulaB	-10.7033
▁brahmarzi	-10.7035
▁dravati	-10.7036
pratIkAr	-10.7041
▁nAmAni	-10.7045
sahAy	-10.7047
gulm	-10.705
▁grIvA	-10.705
saMSray	-10.7051
stamBa	-10.7054
▁picCila	-10.7056
Bakz	-10.7057
Yjali	-10.7065
▁amarzaR	-10.7066
sAtmy	-10.7068
▁pUjayant	-10.7071
▁BuYj	-10.7073
pariplut	-10.7078
▁Atapa	-10.7084
▁dvAdaSA	-10.7085
yamARa	-10.7096
▁SIrz	-10.7107
▁yAsyAm	-10.7112
ADipaty	-10.7117
▁kftAYjal	-10.712
▁Badr	-10.7121
▁sparSana	-10.7139
▁viveS	-10.7142
cCid	-10.7144
▁nikzipy	-10.7146
▁Socant	-10.7147
latA	-10.7147
▁grAhi	-10.715
▁vyADit	-10.7155
▁avApa	-10.7161
Dyayana	-10.7177
pradIp	-10.7195
tsn	-10.7197
▁AdityA	-10.7197
▁roc	-10.7198
ANgo	-10.7199
▁gantu	-10.72
▁Bavya	-10.7209
▁jambU	-10.7218
▁kEvalya	-10.7218
▁nEmiz	-10.7218
▁niyacCati	-10.7218
▁ujjval	-10.7218
▁aByanujYAt	-10.7218
▁ASIviz	-10.7218
▁SatrUn	-10.7218
▁puzkal	-10.7218
▁prajApatim	-10.7219
▁gfhARa	-10.7219
▁mAtali	-10.7219
▁upacakram	-10.7219
▁Avaham	-10.722
▁anAry	-10.722
▁naraSrezWa	-10.7221
▁nAwya	-10.7222
▁yUz	-10.7222
▁aTAbravIt	-10.7225
▁vidrut	-10.7226
▁AKyam	-10.7227
▁durgA	-10.7229
▁indreR	-10.7234
▁uvAsa	-10.7237
▁dviviDA	-10.7242
BAj	-10.7243
▁nyasya	-10.7246
▁aBinand	-10.7247
prAR	-10.7249
▁yogy	-10.7251
kawu	-10.7261
▁kazAyA	-10.7268
rAkzasa	-10.7269
▁DUpa	-10.7278
▁svit	-10.7292
parimit	-10.7294
SarIriR	-10.7302
AmayAn	-10.7315
janana	-10.7318
▁nirdizwa	-10.7322
▁rudralok	-10.7325
▁SuklatIrT	-10.7331
▁SoDana	-10.7335
Arogya	-10.7337
vinASinI	-10.7346
Dipati	-10.735
nara	-10.7351
AzA	-10.7351
mETun	-10.7353
▁SrUya	-10.7355
ahan	-10.7359
▁sarvAtman	-10.7369
▁tantu	-10.7384
SarIra	-10.7401
▁prayacC	-10.7417
bfhaspat	-10.7423
▁vakra	-10.7424
▁hriyamAR	-10.7427
▁jAmadagny	-10.7427
▁krimi	-10.7427
▁udgITa	-10.7427
kaYcuk	-10.7427
▁kIcak	-10.7427
▁mucyante	-10.7427
▁paWan	-10.7427
▁nizaD	-10.7427
▁mahAmanAH	-10.7427
▁jarayA	-10.7427
▁bravIhi	-10.7429
▁DAtavaH	-10.7431
mUrtaye	-10.7432
▁meKalA	-10.7432
▁vasavaH	-10.7435
▁hovAca	-10.7436
▁kavay	-10.7444
▁sarpir	-10.7445
▁utpAda	-10.7445
▁niScitA	-10.7448
▁brahmacaryeRa	-10.7454
▁Brazwa	-10.7457
prasav	-10.7465
▁avajYA	-10.7469
▁hrasva	-10.7472
DArmik	-10.7474
▁naBaH	-10.7475
▁SuBAn	-10.7476
▁aBihita	-10.7481
kuts	-10.7486
▁puRyatam	-10.7486
▁rAjaDarm	-10.7494
AkASa	-10.7496
pUt	-10.7518
▁satkAra	-10.7522
nuloma	-10.7522
eByaSca	-10.7527
AcCAda	-10.7529
▁BAradvAj	-10.7531
▁sagara	-10.7545
▁nandin	-10.756
Apekz	-10.7561
▁Bojya	-10.7583
▁rakzAMs	-10.7603
▁muhy	-10.7608
▁mUrDa	-10.7609
▁nagn	-10.7615
tattvajY	-10.7623
pralAp	-10.7623
ccAp	-10.7628
uttama	-10.763
▁surAp	-10.7631
mUtrapurIz	-10.7639
▁Sibir	-10.7639
▁sPIt	-10.7639
▁miTaH	-10.7639
▁prezy	-10.7639
mitOjasa	-10.764
Bizecan	-10.764
▁rAjIva	-10.764
▁veditum	-10.764
▁anuSoc	-10.764
▁tomar	-10.764
▁yuj	-10.764
▁sTAtu	-10.764
▁udBavam	-10.764
▁hutvA	-10.764
▁pratilom	-10.7641
▁bahir	-10.7641
▁anekaSaH	-10.7641
▁kramaSaH	-10.7641
▁rucira	-10.7642
▁Sulka	-10.7642
▁kulatT	-10.7642
▁kzAtr	-10.7645
psarasA	-10.7646
▁gireH	-10.7651
▁majjA	-10.7654
▁avekzya	-10.7655
▁samAcara	-10.7656
dAyi	-10.7658
▁aSok	-10.7658
▁rAjasattama	-10.7665
satkft	-10.7673
▁pAyu	-10.7678
▁prasIdati	-10.768
▁parokza	-10.7682
IBavati	-10.7684
▁saptame	-10.7689
jvalan	-10.7689
kusum	-10.769
bAnDav	-10.769
▁rocana	-10.7695
smfti	-10.7695
samAkul	-10.77
▁Agata	-10.7704
praharaR	-10.7705
cintaya	-10.7708
paSyad	-10.7711
▁mArgeR	-10.7719
Denu	-10.7724
Sizy	-10.7731
▁pipAs	-10.7754
muni	-10.7759
majj	-10.7759
AByantar	-10.7759
▁hariR	-10.7768
▁pUya	-10.7769
pratizW	-10.778
▁paYcaviMSat	-10.7782
guq	-10.7812
citra	-10.7819
▁suraBi	-10.7824
maDyasT	-10.783
budDayaH	-10.7832
▁vinAyak	-10.7833
▁vESyA	-10.785
▁kriyatA	-10.7852
▁baDyate	-10.7857
▁drakzyant	-10.7857
cikIrza	-10.7857
▁fdDi	-10.7857
▁ahorAtr	-10.7857
▁duhitara	-10.7857
▁SatrURA	-10.7857
▁vAnaprasT	-10.7857
▁Sucay	-10.7857
▁jagfhu	-10.7857
▁stutvA	-10.7857
▁sugamam	-10.7858
▁DOmy	-10.7858
▁prAyaSaH	-10.7858
▁vandit	-10.7859
▁nimba	-10.786
▁BAgavat	-10.7861
▁pUjanam	-10.7861
▁cakravAk	-10.7861
▁SarIriRAm	-10.7862
▁Bej	-10.7862
▁kutr	-10.7863
▁zaqguR	-10.7865
kavac	-10.7866
▁juhuyAt	-10.7866
UrDv	-10.7867
▁tvadIy	-10.7869
cireR	-10.787
▁kftAstr	-10.7871
▁sumantra	-10.7872
▁gadayA	-10.7878
▁aDiBUta	-10.7878
▁tuzwAva	-10.7878
dAyinI	-10.7882
▁ananya	-10.7882
▁rAjYa	-10.7882
▁ceh	-10.7883
gAtr	-10.7884
▁hantu	-10.789
▁kalaha	-10.7891
▁daSaguR	-10.7893
▁jAnA	-10.7905
▁tIra	-10.7907
▁brahmAR	-10.7908
uttamA	-10.7908
▁yAsyant	-10.7912
▁dvAv	-10.7917
▁laNGana	-10.7941
SAp	-10.7944
▁DyAyant	-10.7953
▁deSakAl	-10.7954
nIl	-10.7968
▁suparR	-10.7976
▁prayukta	-10.7984
Dama	-10.7985
▁liKita	-10.7985
▁Kaga	-10.7997
▁tasyE	-10.802
▁GanA	-10.8029
▁gAna	-10.8039
AnvitA	-10.8043
▁kzipan	-10.8047
kuwumb	-10.8048
▁tyaje	-10.8056
▁vyU	-10.806
▁anuttam	-10.8064
eREva	-10.8066
samASrit	-10.8078
tandrit	-10.8078
▁sindUra	-10.8079
▁nErft	-10.8079
▁nandikeSvara	-10.8079
▁anvicCa	-10.8079
▁karpUra	-10.8079
▁daDIca	-10.8079
▁mahItale	-10.8079
▁ijyA	-10.8079
▁prayujya	-10.8079
▁SrotA	-10.808
▁samIraRa	-10.808
▁tapyamAn	-10.808
▁urasi	-10.808
▁gOrI	-10.8081
▁hiraRyagarB	-10.8082
▁brahmavAdin	-10.8082
▁utsfzwa	-10.8083
patit	-10.8085
▁devaganDarva	-10.8086
▁vyavasTA	-10.8087
▁rAkzasADipa	-10.8087
▁Samana	-10.8088
▁sIte	-10.809
▁vfzaBa	-10.8095
gAminaH	-10.8099
guRopet	-10.8101
▁pARqUnA	-10.8104
▁prakAreRa	-10.8109
vijYAna	-10.8114
lAlas	-10.8119
▁dAqima	-10.812
samudBUt	-10.8126
▁aByaDika	-10.8127
▁AdeS	-10.8128
kilbiz	-10.8139
samAcAr	-10.8141
kuRqal	-10.8147
bahu	-10.8148
▁samBram	-10.815
prasaNg	-10.8152
▁yakzA	-10.8167
▁yutA	-10.8174
▁dAhe	-10.8178
▁vipriya	-10.8183
▁viSoDana	-10.8185
▁BARqe	-10.8195
▁hAri	-10.82
sattv	-10.8204
ruDyate	-10.8207
▁palAyan	-10.8209
▁nikzipta	-10.8228
▁varzaSat	-10.8254
▁Una	-10.8257
▁KaRqa	-10.8279
▁pAlana	-10.8281
aTApi	-10.8286
▁vimucya	-10.8296
▁Sigru	-10.8306
▁leKanam	-10.8306
▁vAYCa	-10.8306
▁zazwyA	-10.8306
prepsu	-10.8306
▁prayoktavy	-10.8306
▁sinDu	-10.8306
▁taptaKalve	-10.8306
▁tfpyant	-10.8306
▁zaRmAs	-10.8306
▁samutpat	-10.8306
▁dyUte	-10.8306
▁pradIyate	-10.8306
▁veRu	-10.8307
▁kubj	-10.8307
▁stuvant	-10.8307
▁sArasvat	-10.8307
▁paSupati	-10.8307
▁paricArak	-10.8307
▁paripAlan	-10.8308
▁kuntyA	-10.8308
▁ramBA	-10.8308
▁dahyat	-10.8308
▁jagAda	-10.8308
▁vrAt	-10.8308
taqAg	-10.831
badar	-10.831
▁ambA	-10.831
▁procyate	-10.831
▁dahet	-10.8313
▁viSada	-10.8315
▁nikftt	-10.8316
▁nivartante	-10.8317
▁aDipatiH	-10.8318
▁muKAt	-10.8318
jantUnA	-10.8319
▁darSanIy	-10.832
▁kuntIputr	-10.8321
mastak	-10.8322
▁viSezeR	-10.8326
▁Oras	-10.8326
▁nirveda	-10.8331
▁pravfdDa	-10.8342
▁pulasty	-10.8343
▁pratikUl	-10.8346
▁kartAram	-10.8346
▁kadamba	-10.8363
kAzW	-10.837
▁yast	-10.837
karmaRaH	-10.8372
▁pUrRA	-10.8379
SAntaye	-10.8384
▁apeta	-10.8385
▁rakzet	-10.8399
▁Sapta	-10.8406
liKit	-10.8409
bAR	-10.8409
▁nihaty	-10.8413
pratyaya	-10.842
▁krIqant	-10.8431
AnubanD	-10.8433
aDvam	-10.846
▁dadat	-10.8462
candrArk	-10.8482
pUjita	-10.8495
▁samudyat	-10.8506
samanvitA	-10.8517
▁vandy	-10.8532
▁avApsyasi	-10.8539
▁tUzRIm	-10.8539
▁trivizwap	-10.8539
▁tuzwuvuH	-10.8539
▁vinirdiSet	-10.8539
▁vrIhi	-10.8539
▁parityakta	-10.8539
▁lakzmyA	-10.8539
▁viKyAtA	-10.8539
▁iNgit	-10.8539
▁rAjarze	-10.8539
▁amAnuz	-10.8539
▁taptvA	-10.854
▁palASa	-10.8541
▁AgacCat	-10.8541
▁Bagadatta	-10.8541
▁narottama	-10.8542
▁ihAgat	-10.8542
▁Pena	-10.8542
▁yoginA	-10.8542
▁nikzipet	-10.8543
▁taskar	-10.8544
▁aSIti	-10.8544
▁mOna	-10.8545
▁barh	-10.8545
vakAS	-10.8546
▁triSUl	-10.8549
▁kanizW	-10.8551
▁nirft	-10.8551
▁nEtad	-10.8554
▁rAjaSArdUla	-10.8554
▁puraH	-10.8555
▁caturRAm	-10.8555
▁anuttamAm	-10.8558
▁hanyamAn	-10.856
▁yakzARAm	-10.856
▁jYAyate	-10.8562
sparS	-10.8567
▁munaya	-10.8581
▁vyarT	-10.8583
▁sAmnA	-10.8583
▁kukkuwa	-10.8584
viGAt	-10.8589
▁praTita	-10.8597
toy	-10.86
cCAy	-10.8603
▁surAsur	-10.8603
kumAr	-10.8604
giri	-10.8612
pravartan	-10.8615
▁vfttAnt	-10.8618
nuSAsanam	-10.8624
▁vAyav	-10.8642
mfga	-10.8643
▁hanizy	-10.8645
Siro	-10.866
ozit	-10.8661
▁Anana	-10.8662
tIvr	-10.8685
ryamA	-10.8686
▁kArit	-10.8692
▁hrada	-10.8698
ANgA	-10.8723
samIp	-10.8727
sADane	-10.8745
▁tArakA	-10.8759
maDura	-10.8767
▁DriyamAR	-10.8777
▁paWat	-10.8777
▁pravrajit	-10.8777
dudruvuH	-10.8777
▁kOmAr	-10.8777
▁prIyamAR	-10.8777
▁samanuprApt	-10.8777
▁suSroR	-10.8777
▁sObalaH	-10.8777
▁sarvapApahar	-10.8777
▁vastrAR	-10.8777
pUruz	-10.8777
▁jantavaH	-10.8777
▁catvAriMSat	-10.8777
▁SakuntalA	-10.8777
▁yuDyas	-10.8777
▁hayameD	-10.8777
▁Boktu	-10.8777
▁prIyatA	-10.8777
▁prekzamAR	-10.8777
▁milat	-10.8777
▁kuryuH	-10.8777
▁jAnapad	-10.8777
kArttik	-10.8777
▁nizAd	-10.8778
▁tarhi	-10.8778
▁smaret	-10.8778
▁praSamana	-10.878
▁viniScity	-10.878
▁SuBASuB	-10.878
▁BarataSrezWa	-10.878
▁Candasi	-10.878
▁varDamAn	-10.8781
▁Ardraka	-10.8781
kOSal	-10.8781
▁baBUvur	-10.8782
▁KyAtA	-10.8782
▁prakurvIta	-10.8785
▁spfSet	-10.8787
▁kaNka	-10.8787
saMBrAnt	-10.8788
▁SaNkit	-10.8788
vyApAr	-10.8789
▁nfpasattama	-10.8792
▁cintayat	-10.8794
▁upahata	-10.8794
▁haritAl	-10.8797
▁anukamp	-10.8798
▁AgAr	-10.88
▁karizyant	-10.8802
▁mamAp	-10.8803
▁avamanya	-10.8809
▁kuwumba	-10.8811
▁patnyA	-10.8811
▁pravAla	-10.8816
▁sTErya	-10.8817
NgirA	-10.8832
Bakzy	-10.8839
▁lokAnA	-10.8846
▁vErAgy	-10.8847
Anucar	-10.8858
▁SastreR	-10.8872
padma	-10.8879
▁Bikzuk	-10.8881
▁cAraRA	-10.8882
▁niDAna	-10.8884
▁Bavizy	-10.8916
▁yantre	-10.8926
▁jAgart	-10.8935
jIvinaH	-10.8942
AptavAn	-10.8956
musal	-10.8966
syeha	-10.8973
BiDIyate	-10.8975
▁vijAnI	-10.8975
Agry	-10.9004
aDizWA	-10.9009
▁havizA	-10.9012
▁ErAvata	-10.902
▁Pull	-10.9021
▁drakzyasi	-10.9021
▁jyotIMz	-10.9021
▁duzyati	-10.9021
▁manmaTa	-10.9021
▁Izat	-10.9021
▁ambarIza	-10.9021
▁prasft	-10.9021
▁brUta	-10.9021
▁vArttA	-10.9021
▁munayo	-10.9021
▁dvijAtiBiH	-10.9021
▁vicinv	-10.9021
▁dIkzit	-10.9021
▁vAraRAvat	-10.9021
▁pradizw	-10.9021
otsav	-10.9022
▁SaSI	-10.9022
opavizw	-10.9022
▁cakzuzI	-10.9023
▁vyavasit	-10.9024
▁niScala	-10.9025
Bart	-10.9027
▁prahlAda	-10.9029
▁imAH	-10.9033
▁maK	-10.9033
▁taTeti	-10.9034
▁gAtrARi	-10.9037
▁aho	-10.9037
▁jAnIyAt	-10.9038
▁gamizyant	-10.9038
▁bata	-10.9039
sADy	-10.9043
▁vrajant	-10.9047
▁caturDA	-10.9056
ABiD	-10.9057
▁Bavennara	-10.9057
▁vasUn	-10.9092
SoRita	-10.9105
▁rakzy	-10.9106
jajYe	-10.9111
tfpt	-10.9113
▁durjan	-10.9124
Ahuti	-10.9132
prokt	-10.9136
▁etac	-10.9138
▁gaReSvar	-10.914
uttara	-10.915
opadeS	-10.9151
▁vAli	-10.9164
▁icCAma	-10.917
▁upatasT	-10.9175
gantavy	-10.9177
tarpaR	-10.9188
grasat	-10.9198
gfhRAti	-10.9204
▁AKye	-10.9206
digD	-10.9236
▁rudrARA	-10.9242
▁Cardi	-10.9271
▁ikzvAkURA	-10.9271
▁taTetyuktvA	-10.9271
▁jAnakI	-10.9271
▁kArtavIrya	-10.9271
▁kaTyamAn	-10.9271
▁romaharzaRa	-10.9271
▁svABAvik	-10.9271
▁yuzmABi	-10.9271
▁milit	-10.9271
▁pacyamAn	-10.9271
▁rudatI	-10.9271
▁vEkartan	-10.9271
▁jvalat	-10.9271
▁kzuDit	-10.9271
▁munInAm	-10.9271
▁bfhaspateH	-10.9271
▁Bokzy	-10.9271
▁SoBate	-10.9271
▁pfcCe	-10.9271
▁vfzaBaDvaja	-10.9271
▁yozitAm	-10.9272
▁vidDvA	-10.9272
▁striyo	-10.9272
GrAR	-10.9274
▁pfTvI	-10.9274
tirikt	-10.9274
▁pOz	-10.9275
▁grasta	-10.9275
▁paNka	-10.9277
Saman	-10.9278
▁viDeya	-10.9281
▁sarvAsAm	-10.9281
▁apaSyan	-10.9283
▁avijYAt	-10.9283
ezveva	-10.9283
▁varRASram	-10.9285
▁lIyate	-10.9286
▁virAjat	-10.9286
▁sadEva	-10.9287
▁sattr	-10.9287
▁samBavati	-10.9292
▁viDAtA	-10.9304
samUh	-10.9315
▁vandan	-10.9323
▁abda	-10.9327
▁kUpa	-10.9339
praRiD	-10.934
▁petu	-10.9343
niket	-10.9347
cEtanya	-10.9347
▁viditA	-10.9348
▁BAsa	-10.9348
▁Dyeya	-10.9353
AcArya	-10.9371
SozaRa	-10.9386
▁necC	-10.9389
niScit	-10.9413
vyUh	-10.942
▁arhant	-10.9437
satkAr	-10.9438
vAji	-10.9441
▁trARa	-10.9442
viSoDan	-10.9443
▁nikzip	-10.9446
▁ESvary	-10.9449
jihv	-10.947
▁gopa	-10.948
▁sunda	-10.9491
▁nihit	-10.9498
Aviva	-10.9509
▁sOBa	-10.9527
▁GaRwA	-10.9527
▁PAlgun	-10.9527
▁fzayo	-10.9527
▁jamadagni	-10.9527
▁nEvedya	-10.9527
▁kzutpipAs	-10.9527
liNgamahA	-10.9527
▁prayAge	-10.9527
▁SaSvat	-10.9527
▁Endr	-10.9527
▁gAnDAr	-10.9527
▁hArIta	-10.9528
▁Gfzw	-10.9528
▁BfNg	-10.9528
ANkuS	-10.9528
▁GfR	-10.9528
▁udBavaH	-10.9528
▁dasyu	-10.9529
▁parigfhya	-10.953
▁itaretara	-10.9531
▁Silpin	-10.9531
▁anurUpam	-10.9532
▁dvijarzaBa	-10.9532
hetor	-10.9533
▁paramaprIt	-10.9534
SAstraviSArad	-10.9534
▁jYEH	-10.9535
▁vAyuBakz	-10.9538
utTAn	-10.9538
▁janasTAn	-10.9538
triMSad	-10.954
▁Arye	-10.9542
▁lIlA	-10.9547
▁Srit	-10.9548
▁prAptakAl	-10.9557
▁damBa	-10.9559
▁jihva	-10.9562
▁acar	-10.9572
▁paryay	-10.9577
▁punast	-10.9591
▁udBavA	-10.96
▁kuber	-10.9605
dityA	-10.9605
nDaka	-10.9612
vetasa	-10.9617
▁aBihata	-10.9621
dEty	-10.9623
droR	-10.9628
Ayuzya	-10.9641
▁ganDarvE	-10.9641
▁pAlak	-10.9644
mAlI	-10.9665
kuYj	-10.9684
dvAdaS	-10.9688
vijay	-10.9695
▁Sreya	-10.9714
▁kzud	-10.972
▁naSyat	-10.9721
hlAd	-10.9734
▁rogiR	-10.9735
▁SrAnta	-10.9746
vipr	-10.9749
▁duzkft	-10.978
nupAn	-10.9784
▁Srotavya	-10.979
▁SvayaTu	-10.979
▁UcatuH	-10.979
▁gARqIvaDanvan	-10.979
▁jaratkAru	-10.979
▁sarvaSastraBftA	-10.979
▁viSuDyati	-10.979
▁mlecCa	-10.979
▁rAmalakzmaR	-10.979
▁stUyamAn	-10.979
▁eraRqa	-10.979
▁valmIka	-10.979
▁vepamAn	-10.979
▁svasrIy	-10.979
▁Datte	-10.979
▁kacCap	-10.9791
SrOz	-10.9791
▁Boktavy	-10.9791
▁paNkti	-10.9791
▁dilIp	-10.9791
▁pUjanIy	-10.9791
▁sUdana	-10.9791
▁etasmAt	-10.9791
▁vinaSyant	-10.9791
▁upetya	-10.9791
▁KyAto	-10.9791
▁ambikA	-10.9791
▁yAcyamAn	-10.9791
▁BakzaRAt	-10.9791
▁sarvapApeBy	-10.9792
▁nIlalohita	-10.9792
▁mizat	-10.9792
▁aBidrut	-10.9792
▁prapaSyant	-10.9792
▁prapanna	-10.9793
cirAt	-10.9793
BivarDate	-10.9793
▁karRikAr	-10.9794
▁vijAnIyAt	-10.9796
▁vikzip	-10.9798
nizevaR	-10.9798
▁rUpiRI	-10.9801
▁DAraRe	-10.9801
▁saMvid	-10.9802
▁sikta	-10.9805
yonayaH	-10.9809
▁kuNkuma	-10.9817
vallaBA	-10.9831
▁upalaBya	-10.9831
▁SmaSAn	-10.9833
▁prahasta	-10.9853
▁SarIrAR	-10.9854
marizyasi	-10.9861
Bimat	-10.9866
SaraR	-10.987
lohita	-10.987
▁pApeBy	-10.9871
▁Agate	-10.9873
SoDana	-10.9882
▁kartr	-10.9883
▁satata	-10.9883
▁kftajYa	-10.9884
▁SAntAy	-10.9901
▁AByantara	-10.9902
uddiSya	-10.9906
raSmi	-10.991
▁jitendriy	-10.9913
▁sAmudr	-10.9915
badDA	-10.9922
bAD	-10.9924
ASramA	-10.9931
▁adBut	-10.9931
nnapAn	-10.9944
aviDyat	-10.9948
▁SrUyatA	-10.9968
▁gay	-10.9969
psarasa	-10.9976
▁anuSAs	-10.9977
▁ASi	-10.999
yajat	-10.9991
▁gAyant	-10.9992
▁yastva	-10.9999
vizAR	-11.0012
SvameD	-11.0015
▁rakzant	-11.003
▁prApnuyA	-11.0037
Kar	-11.0039
Snute	-11.0041
▁amlE	-11.0057
▁KARqava	-11.0061
▁jizRu	-11.0061
▁kAmboj	-11.0061
▁namastuBya	-11.0061
▁prastAvaH	-11.0061
▁apUjayan	-11.0061
▁gavAkz	-11.0061
▁aSnIyAt	-11.0061
▁BrAjamAn	-11.0061
▁samidD	-11.0061
▁jantoH	-11.0062
▁valkala	-11.0062
otsAh	-11.0062
▁kArayed	-11.0063
▁priyaMvad	-11.0063
▁aNguli	-11.0063
▁toraR	-11.0063
▁damanaka	-11.0063
▁Dig	-11.0065
▁niGnat	-11.0065
▁gamyatAm	-11.0067
▁gOravam	-11.0068
▁dyutiH	-11.0068
▁SlakzR	-11.0069
▁jetA	-11.0069
▁sTAlI	-11.0069
▁hotr	-11.007
▁avabuDya	-11.007
▁leh	-11.0072
▁hikkA	-11.0073
▁raNga	-11.0077
▁sraja	-11.0085
▁rAkzaseSvara	-11.0085
▁upADyAya	-11.0086
AyuzaH	-11.009
sidDyarTa	-11.0099
▁apaSyam	-11.0104
▁dEtyendr	-11.0106
sfjad	-11.0107
▁mahimA	-11.0109
▁utkfzwa	-11.0117
▁katama	-11.0125
▁spfzwa	-11.0132
▁praRAma	-11.0138
paYcA	-11.0145
▁utTAna	-11.0149
guhya	-11.0169
soma	-11.017
dIpt	-11.017
vIkzya	-11.0173
▁AvaraRa	-11.0176
utpann	-11.0188
▁rudDa	-11.0196
Gor	-11.0198
▁medas	-11.0228
▁vivAde	-11.0236
BaradvAj	-11.0241
vidagD	-11.0242
▁mAnin	-11.0247
vall	-11.0253
AnusAr	-11.0274
▁patant	-11.0275
syopari	-11.0276
▁upAdrava	-11.0318
nDakAr	-11.0323
▁ciYcA	-11.0338
▁Bartari	-11.0339
▁brUyuH	-11.0339
▁drakzyAm	-11.0339
▁gARapatya	-11.0339
▁manIziBiH	-11.0339
▁pEtAmah	-11.0339
▁prAYjalaya	-11.0339
▁vaktumarhasi	-11.0339
▁vfzaparvaRaH	-11.0339
▁duratikrama	-11.0339
▁pAkaSAsana	-11.0339
▁yAtuDAn	-11.0339
bindavaH	-11.0339
▁Bavitum	-11.0339
▁ftuparR	-11.0339
vyatirek	-11.0339
▁prapaSyAm	-11.0339
▁Betavya	-11.0339
▁paced	-11.0339
▁spfzwvA	-11.0339
▁dvijottam	-11.0339
▁upadizw	-11.0339
▁vindate	-11.0339
mADury	-11.0339
▁dustar	-11.0339
▁pratIpa	-11.0339
▁kleda	-11.0339
▁tAqana	-11.0339
▁zaRmuK	-11.0339
▁SrOta	-11.0339
▁sarpizA	-11.0339
▁namonamaH	-11.0339
▁namaskAr	-11.0339
▁SuSrUzaR	-11.034
▁satyavAdin	-11.034
▁anasUy	-11.034
▁spfhA	-11.0341
vyapASray	-11.0341
saMvAd	-11.0341
▁patag	-11.0342
▁naranArAyaR	-11.0342
▁Amiza	-11.0343
▁devAsura	-11.0343
▁karavIr	-11.0344
▁nararzaBa	-11.0344
▁rakzyamAR	-11.0344
▁suDanv	-11.0346
▁sampuwe	-11.0352
▁pradey	-11.0354
▁pacat	-11.0358
▁durgatim	-11.036
▁visarpa	-11.0364
▁sAhya	-11.0364
▁tajjY	-11.0365
▁kabanDa	-11.0365
▁etezA	-11.0381
panIt	-11.0391
▁kapardin	-11.0394
Azwaka	-11.0395
▁paYcaviMSaka	-11.0401
yAyatan	-11.0402
▁ajita	-11.0417
▁cAraRa	-11.0425
sambadD	-11.0426
▁smarAm	-11.0434
dvitIy	-11.0449
salil	-11.0458
pArSva	-11.0459
▁parihar	-11.0468
SiraH	-11.0471
▁pitfvy	-11.0478
▁sADya	-11.0488
▁AyuDAn	-11.0508
pakAr	-11.0512
tanay	-11.0513
puzpaPal	-11.0532
▁CAy	-11.0536
drAkz	-11.0541
▁lubDak	-11.0545
BEkz	-11.0546
▁tIvrA	-11.055
▁prahasy	-11.056
aSAsa	-11.0567
svinn	-11.0569
ASramapad	-11.0571
odyat	-11.058
Dyey	-11.0622
▁Ajagmu	-11.0624
▁akzOhiRI	-11.0624
▁paWyate	-11.0624
▁Ipsit	-11.0624
▁Satakrato	-11.0624
▁sPow	-11.0624
▁ucCvAsa	-11.0624
▁vAsizW	-11.0624
▁fju	-11.0624
▁putrapOtr	-11.0624
▁sAyAhn	-11.0624
▁upadiSyate	-11.0624
▁paryuzita	-11.0624
▁upayujya	-11.0624
▁kamaRqalu	-11.0624
▁kfttivAs	-11.0624
▁tatrEvAntar	-11.0625
▁atandritaH	-11.0625
▁dvAtriMS	-11.0625
▁mUzak	-11.0626
▁ekAdaSa	-11.0626
▁BAgaSaH	-11.0626
▁Atreya	-11.0626
▁SanEr	-11.0627
▁pARqusut	-11.0627
▁grAhyA	-11.0635
▁yUp	-11.0636
pyevaM	-11.0637
▁pariSrAnta	-11.0639
DizWAnam	-11.0639
▁kUwasT	-11.0644
▁nilay	-11.0667
▁mahendr	-11.0671
SatroH	-11.0679
mUrDA	-11.0696
▁musala	-11.0698
▁svinna	-11.0699
▁avasT	-11.072
▁vikrameR	-11.072
▁vidagDa	-11.0725
▁ASOc	-11.073
▁vicAra	-11.0743
nArAyaR	-11.0746
Druv	-11.0751
snigDa	-11.0754
vattar	-11.0804
ADyayan	-11.0837
kadamb	-11.0846
tasTire	-11.0849
tejasaH	-11.0854
Atapatr	-11.0862
▁Bizag	-11.0918
▁catuzpaT	-11.0918
▁cintayitvA	-11.0918
▁divAkare	-11.0918
▁guror	-11.0918
▁klizw	-11.0918
▁urvaSI	-11.0918
▁vAjapeya	-11.0918
▁vyapohan	-11.0918
▁yuyutsa	-11.0918
▁aNkuS	-11.0918
nikfntan	-11.0918
▁vaRik	-11.0918
▁yogakzem	-11.0918
▁asfk	-11.0918
▁saBAsadaH	-11.0918
vaBfT	-11.0918
▁Bartur	-11.0919
▁Ballen	-11.0919
▁devatAyatan	-11.0919
▁pAwa	-11.0919
▁paYcagavy	-11.0919
▁gIyate	-11.0919
▁uttamEH	-11.0919
▁amoGa	-11.0919
▁tadarDa	-11.0919
▁titikz	-11.092
▁trastA	-11.092
▁AvayoH	-11.092
▁sevyamAn	-11.092
▁kroSant	-11.092
▁pramudit	-11.0921
▁SAstA	-11.0923
▁SaSAp	-11.0924
▁Kura	-11.0924
▁gomaya	-11.0925
▁plakza	-11.0926
▁paRya	-11.0926
▁nartak	-11.0926
▁savitA	-11.0927
▁trya	-11.0928
SAyin	-11.0929
mlalavaR	-11.0931
syEt	-11.094
kfcCra	-11.0944
cumb	-11.095
▁ruru	-11.0953
▁suKin	-11.0953
▁nyapata	-11.0957
▁utsAha	-11.0963
▁brAhmaReBya	-11.097
▁nibarhaR	-11.0977
▁kratuBi	-11.0979
▁prakop	-11.1031
nnaraH	-11.1033
mAlinI	-11.1052
▁kil	-11.1053
SayyA	-11.1056
▁srota	-11.1057
▁surottam	-11.1065
vasit	-11.1078
▁vihvala	-11.1081
▁DyAyat	-11.1084
▁antarAtman	-11.1085
gfhRIyAt	-11.1085
vinIt	-11.1086
uttarottara	-11.1122
tApanaH	-11.1147
NgAra	-11.119
▁sarvaBUtahit	-11.1209
▁ahiMs	-11.1215
▁prayuYj	-11.1221
▁balAbalam	-11.1221
▁viSvAmitro	-11.1221
▁DUrt	-11.1221
▁pradIyatAm	-11.1221
▁Garme	-11.1221
▁vfzRayaH	-11.1221
▁kitav	-11.1221
▁vivarDate	-11.1221
▁SrIBEravaH	-11.1221
▁marakata	-11.1222
▁paYcAkzar	-11.1222
▁nyUna	-11.1222
▁jaGanya	-11.1222
▁vilapan	-11.1222
▁BartrA	-11.1222
▁rakzitum	-11.1222
▁Kadira	-11.1222
▁rohita	-11.1222
▁viDAtavy	-11.1222
▁lAkzA	-11.1222
▁jAgrat	-11.1223
▁kzapA	-11.1223
▁sammataH	-11.1223
▁gavay	-11.1223
▁yAsyati	-11.1225
▁samASritaH	-11.1225
▁upAdAna	-11.1227
▁tvarayA	-11.1228
▁kaval	-11.123
▁vAcik	-11.1231
suKAvaha	-11.1232
▁bahuviDE	-11.1233
▁jAyamAn	-11.1233
▁nanftu	-11.1235
▁catasra	-11.1237
saMpad	-11.1249
▁rADe	-11.125
▁aDyayan	-11.1251
▁maRqUka	-11.1259
▁ratnAnA	-11.1272
▁sarpARA	-11.128
▁kUj	-11.1283
▁aDIta	-11.1292
AScarya	-11.1319
Badra	-11.1332
▁niruDya	-11.1357
mUrDani	-11.1367
sAhas	-11.137
vajra	-11.138
jyoti	-11.1389
sAlokya	-11.1404
▁liK	-11.1405
zyasi	-11.142
narta	-11.1458
grya	-11.1474
▁ekatr	-11.1476
ABiBUt	-11.1485
▁DarmARA	-11.1486
▁marday	-11.1529
ojjval	-11.1534
prajvalit	-11.1534
▁baBru	-11.1534
▁daMzwriR	-11.1534
▁dvEtavan	-11.1534
▁juhvat	-11.1534
▁mucukund	-11.1534
▁ripUn	-11.1534
▁samAjagmu	-11.1534
▁vAtsyAyanaH	-11.1534
▁vavfD	-11.1534
▁jihma	-11.1534
ricyate	-11.1534
▁dvApara	-11.1534
▁stanAntare	-11.1534
olbaR	-11.1534
▁garIyasI	-11.1534
▁kadrU	-11.1534
▁pralIyate	-11.1534
▁satyavAdI	-11.1534
▁haryaSv	-11.1534
▁trigart	-11.1534
▁SrISuka	-11.1534
▁BUmeH	-11.1535
▁aditi	-11.1536
▁prAptO	-11.1536
▁krIt	-11.1538
▁salokatA	-11.154
kuwil	-11.1542
▁pratyeka	-11.1547
saMmatA	-11.1548
▁smayamAn	-11.155
▁karuRA	-11.1556
paryaNk	-11.1559
▁jYAtavy	-11.1565
▁Aroh	-11.157
▁ukzit	-11.1573
▁piNg	-11.1581
▁dadAh	-11.1587
▁DarmiR	-11.1597
▁pradfSya	-11.1617
▁dinatraya	-11.1661
ganDarva	-11.1681
▁tanmay	-11.1681
brahmA	-11.1685
gacCet	-11.169
rAkzasAH	-11.1691
prasUt	-11.1697
▁pApmAna	-11.1718
cCiv	-11.1722
praBftay	-11.1731
nidrA	-11.1734
tizWe	-11.1736
palabDeH	-11.1739
garuq	-11.1748
▁nyavarta	-11.1759
miTun	-11.1783
valka	-11.1813
vakzyAm	-11.185
dOrbalya	-11.1856
▁atIndriy	-11.1856
▁avApnuhi	-11.1856
▁itTaM	-11.1856
▁maDyAhne	-11.1856
▁ozW	-11.1856
▁pUrvAhRe	-11.1856
▁purastAd	-11.1856
▁rasAtalam	-11.1856
▁satyaparAkrama	-11.1856
▁svAsTya	-11.1856
▁trEvidy	-11.1856
▁varjayitvA	-11.1856
▁apramAd	-11.1857
▁sahAmAty	-11.1857
▁tfzA	-11.1857
▁vaRij	-11.1857
SucO	-11.1857
▁mantavy	-11.1857
▁druhy	-11.1857
▁rEvat	-11.1857
▁samAramB	-11.1857
otpann	-11.1857
▁viparyayAt	-11.1858
▁saMSoDana	-11.1858
▁SirAMs	-11.1858
▁mardanAt	-11.1858
▁karawak	-11.1859
▁Astik	-11.1859
▁senayA	-11.1861
viviSuH	-11.1861
▁prapadyant	-11.1862
▁apavarga	-11.1865
▁anizw	-11.1867
▁udyant	-11.1869
▁satyavikrama	-11.187
▁sTAsyant	-11.187
▁aBiBUya	-11.1872
▁praBavant	-11.1881
matsy	-11.191
▁vAcak	-11.1912
hiMsA	-11.198
▁yajYiy	-11.1986
SaNK	-11.202
lubD	-11.2022
kAYcana	-11.2025
SIrza	-11.2037
▁UzmA	-11.2044
bAla	-11.2056
saMsarg	-11.2056
jIvita	-11.2087
spfzw	-11.2103
BErava	-11.2121
▁Bajant	-11.2173
kaRqUti	-11.219
▁gAruqe	-11.219
▁kizkinDA	-11.219
▁lapsyase	-11.219
▁mumucu	-11.219
▁nIlakaRW	-11.219
▁papracCu	-11.219
▁tarasvinA	-11.219
▁amfzyamAR	-11.219
▁baBAze	-11.219
▁pracakrire	-11.219
▁prakupit	-11.219
▁upozya	-11.219
▁mARqavya	-11.219
▁prANmuK	-11.219
▁prakartavy	-11.219
ajIjanat	-11.219
eyivAn	-11.219
▁kanIyAn	-11.219
▁munISvar	-11.219
▁nEgam	-11.219
▁prozit	-11.219
▁kArpAsa	-11.219
▁uparizwAt	-11.219
▁kfzRavartm	-11.219
▁SaSaMsa	-11.219
▁SaNKacakragadA	-11.219
▁kArzI	-11.219
▁upaniza	-11.219
▁cAkzuz	-11.219
▁varteta	-11.219
▁stuvat	-11.219
▁aDyakz	-11.219
▁Sambar	-11.219
▁aSrOzam	-11.2191
pIqA	-11.2191
▁praSAmya	-11.2191
▁yAsyasi	-11.2191
▁pAcya	-11.2191
vasIdati	-11.2191
patsyate	-11.2191
▁sravat	-11.2191
▁devarzaya	-11.2191
▁snAyu	-11.2192
valgu	-11.2192
liKet	-11.2192
▁virAjit	-11.2192
▁vArzik	-11.2193
▁Bindy	-11.2193
▁Betsy	-11.2193
▁jaGana	-11.2194
▁Uzma	-11.2194
▁amutr	-11.2199
AByanujYAt	-11.2202
Brazw	-11.2202
▁Seku	-11.2203
▁SuSrUzu	-11.2206
▁viSiKE	-11.2207
▁tIvreR	-11.2208
pracur	-11.221
▁vihfty	-11.2212
▁SudDasUt	-11.2213
▁yAjy	-11.2213
snAna	-11.2225
▁netA	-11.2226
▁klama	-11.2228
▁paYcANg	-11.2239
▁nidAna	-11.2241
Acaman	-11.2249
▁janArdan	-11.2251
▁samAvart	-11.2256
endu	-11.2261
pasft	-11.2261
anIyam	-11.2262
▁indriyARA	-11.2297
▁lav	-11.2364
tfzRA	-11.2368
▁gaNg	-11.2378
▁Bramant	-11.2433
▁puwita	-11.2435
AvatAr	-11.2462
▁kapard	-11.2468
▁cintaye	-11.2511
▁dAridrya	-11.2535
▁gaBast	-11.2535
▁hEhay	-11.2535
▁jijYAsu	-11.2535
▁kalevaram	-11.2535
▁Cattra	-11.2535
▁aBIkzRa	-11.2535
▁sAraTy	-11.2535
▁sahalakzmaRa	-11.2535
▁tEjas	-11.2535
▁lomaharzaR	-11.2535
▁pippal	-11.2535
▁yuDyant	-11.2535
▁SucIn	-11.2535
▁bawu	-11.2535
▁umApatim	-11.2535
▁akArayat	-11.2535
▁dvayor	-11.2535
▁prAvfzi	-11.2535
▁sOdAsa	-11.2535
▁DarmakAmArTa	-11.2535
▁kandarpa	-11.2535
▁hriyat	-11.2535
▁rAjarzir	-11.2535
▁niyantA	-11.2535
▁pAMsu	-11.2535
▁kAzAya	-11.2535
▁svAtantry	-11.2535
▁mugD	-11.2535
▁DIyate	-11.2536
▁nizek	-11.2536
▁nikftyA	-11.2536
▁hotA	-11.2536
▁cikitsak	-11.2538
▁vEkuRWa	-11.2539
▁asakt	-11.2541
▁trilocana	-11.256
▁cAtmAna	-11.2562
ASizaH	-11.2563
mitavikrama	-11.2565
▁utpady	-11.2576
▁javen	-11.2577
▁ivABava	-11.2588
gadADara	-11.2617
▁ASaya	-11.2634
oddeS	-11.2636
▁apsara	-11.2642
▁sfjant	-11.2644
▁uttame	-11.2648
▁Srotu	-11.2665
dakziRe	-11.2671
▁asmAs	-11.2686
▁bahava	-11.2695
Bezaja	-11.2718
brUhi	-11.2725
praSn	-11.2779
▁pattrA	-11.2789
komal	-11.2794
▁vimarda	-11.2802
bfhadraT	-11.281
sAkziR	-11.2815
▁ityez	-11.2815
▁yoDin	-11.2857
▁raGu	-11.2891
NGri	-11.2892
▁agnIzom	-11.2892
▁bIBatso	-11.2892
▁juhoti	-11.2892
▁mumUrz	-11.2892
▁nEzWikI	-11.2892
▁anAdiniDan	-11.2892
▁hiraRyakaSipo	-11.2892
▁nEmittik	-11.2892
▁praSaSaMsu	-11.2892
▁sOmadatti	-11.2892
▁tAmbUla	-11.2892
▁vrIqit	-11.2892
▁yavAgU	-11.2892
▁BuNkz	-11.2892
▁DanUMz	-11.2892
▁nirdiSet	-11.2892
▁gehe	-11.2892
▁gfdD	-11.2892
▁vakzasi	-11.2892
▁mlecCA	-11.2892
▁samBAzamAR	-11.2892
▁vfRu	-11.2892
▁atyadButa	-11.2892
nupUrvaSaH	-11.2892
▁padmanABa	-11.2892
▁yuzmAn	-11.2892
▁vIkzamAR	-11.2892
W	-12.7304
C	-12.7305
T	-12.7306
